<pad>	0
<s>	0
</s>	0
<unk>	0
[SEP]	0
[P]	0
▁"	-0
..	-1
""	-2
▁이	-3
...	-4
종합	-5
▁""	-6
▁'	-7
▁아	-8
▁"[	-9
]"	-10
▁사	-11
▁[	-12
ᄏᄏ	-13
▁그	-14
▁"'	-15
▁하	-16
▁나	-17
▁안	-18
▁연	-19
▁여	-20
"""	-21
▁김	-22
▁다	-23
▁한	-24
)"	-25
▁보	-26
▁남	-27
▁지	-28
▁잘	-29
▁정	-30
▁가	-31
는데	-32
▁결	-33
▁인	-34
▁기	-35
▁"""	-36
▁어	-37
▁없	-38
▁1	-39
▁고	-40
▁오	-41
▁자	-42
▁조	-43
▁시	-44
▁대	-45
▁유	-46
""...	-47
으로	-48
▁부	-49
▁전	-50
▁진	-51
단독	-52
▁마	-53
▁공	-54
▁해	-55
하는	-56
▁“	-57
▁성	-58
▁있	-59
하고	-60
▁좋	-61
▁‘	-62
▁박	-63
▁예	-64
니다	-65
▁ᄏᄏ	-66
▁결혼	-67
▁미	-68
▁만	-69
들이	-70
▁일	-71
▁왜	-72
▁너	-73
▁모	-74
▁재	-75
▁2	-76
까지	-77
에서	-78
▁최	-79
▁저	-80
▁여자	-81
▁생	-82
▁무	-83
▁불	-84
▁아니	-85
▁못	-86
▁신	-87
TV	-88
▁내	-89
▁소	-90
▁말	-91
▁너무	-92
▁같	-93
▁방	-94
▁비	-95
▁제	-96
▁수	-97
▁살	-98
!!	-99
▁사람	-100
논란	-101
~~	-102
세요	-103
Oh	-104
▁열	-105
▁장	-106
'"	-107
배우	-108
??	-109
는거	-110
▁감	-111
]""	-112
▁공개	-113
▁중	-114
▁노	-115
▁알	-116
▁의	-117
▁진짜	-118
▁누	-119
▁(	-120
▁많	-121
▁애	-122
▁강	-123
▁개	-124
▁입	-125
으면	-126
▁얼	-127
▁이슈	-128
▁더	-129
지만	-130
▁드	-131
이슈	-132
▁논란	-133
▁주	-134
전문	-135
▁상	-136
▁것	-137
▁연예	-138
▁동	-139
▁출	-140
...""	-141
▁문	-142
▁남자	-143
▁연기	-144
▁딸	-145
▁뭐	-146
▁행	-147
공식	-148
다고	-149
이라	-150
▁반	-151
▁거	-152
▁눈	-153
▁폭	-154
....	-155
▁스	-156
▁3	-157
▁피	-158
혼자	-159
▁되	-160
▁측	-161
▁구	-162
▁후	-163
""...'	-164
▁관	-165
하게	-166
▁바	-167
▁우	-168
▁서	-169
네요	-170
""..	-171
▁참	-172
렇게	-173
터뷰	-174
▁좀	-175
SC	-176
]'	-177
▁근	-178
▁발	-179
▁첫	-180
▁선	-181
▁않	-182
▁도	-183
▁열애	-184
인데	-185
▁송	-186
▁악	-187
들은	-188
▁방송	-189
▁아이	-190
▁엄	-191
▁언	-192
▁화	-193
응원	-194
ᄏᄏᄏᄏ	-195
▁"‘	-196
▁현	-197
부터	-198
라마	-199
ᅲᅲ	-200
어요	-201
하지	-202
)[	-203
하면	-204
▁양	-205
▁추	-206
""(	-207
▁4	-208
하다	-209
▁실	-210
▁생각	-211
▁위	-212
▁당	-213
”"	-214
했다	-215
""[	-216
▁이혼	-217
인터뷰	-218
2'	-219
▁임	-220
었다	-221
▁설	-222
▁차	-223
▁매	-224
▁세	-225
▁영	-226
▁배우	-227
▁얼굴	-228
▁돌	-229
▁역	-230
▁할	-231
▁홍	-232
해서	-233
▁돈	-234
▁백	-235
▁난	-236
▁변	-237
▁별	-238
이나	-239
▁응원	-240
▁또	-241
▁그냥	-242
리고	-243
▁아닌	-244
▁본	-245
이다	-246
▁악플	-247
▁때	-248
▁음	-249
▁이상	-250
산다	-251
▁#	-252
니까	-253
▁연예인	-254
▁남편	-255
▁등	-256
▁죽	-257
▁사랑	-258
▁욕	-259
▁힘	-260
겠다	-261
프로	-262
하나	-263
▁사과	-264
▁끝	-265
▁맞	-266
▁요	-267
▁기사	-268
▁사진	-269
▁이유	-270
▁솔	-271
한다	-272
▁물	-273
사람	-274
커플	-275
▁드라마	-276
▁둘	-277
▁분	-278
라고	-279
▁넘	-280
▁ᄏᄏᄏᄏ	-281
▁이제	-282
사랑	-283
▁손	-284
보다	-285
은데	-286
준영	-287
▁행복	-288
▁원	-289
▁나오	-290
▁했	-291
kg	-292
▁이런	-293
▁심	-294
▁호	-295
한테	-296
▁먹	-297
리뷰	-298
▁ᄏᄏᄏ	-299
▁계	-300
▁윤	-301
들어	-302
던데	-303
재현	-304
▁집	-305
종원	-306
▁죄	-307
♥'	-308
는게	-309
▁확	-310
▁고백	-311
혜선	-312
▁오늘	-313
이지	-314
나라	-315
..""	-316
댓글	-317
입장	-318
▁아들	-319
▁니	-320
▁민	-321
▁복	-322
았다	-323
▁속	-324
▁올	-325
▁친	-326
▁5	-327
▁팬	-328
vs	-329
▁달	-330
스타	-331
▁엄마	-332
^^	-333
▁10	-334
▁와	-335
...'	-336
▁처	-337
▁눈물	-338
in	-339
▁머	-340
▁배	-341
에게	-342
▁하는	-343
합니다	-344
활동	-345
▁좋아	-346
연애	-347
ing	-348
▁경	-349
▁데	-350
▁몰	-351
▁싶	-352
▁함	-353
혜교	-354
▁뭔	-355
이어	-356
▁승	-357
▁완	-358
▁외	-359
식당	-360
나혼자	-361
▁사실	-362
ᄒᄒ	-363
▁두	-364
▁황	-365
혜진	-366
▁댓글	-367
면서	-368
아이	-369
지는	-370
▁6	-371
▁포	-372
▁많이	-373
▁없어	-374
해라	-375
▁인정	-376
▁천	-377
현무	-378
▁무슨	-379
공식입장	-380
▁싫	-381
▁라	-382
▁작	-383
▁축	-384
▁보고	-385
스트	-386
▁그만	-387
▁단	-388
▁받	-389
▁밝	-390
▁누구	-391
▁좋은	-392
▁새	-393
인가	-394
NO	-395
▁웃	-396
▁나이	-397
▁걸	-398
▁봐	-399
ᄏᄏᄏ	-400
▁부부	-401
▁잘못	-402
▁정말	-403
습니다	-404
속사	-405
▁의혹	-406
▁커플	-407
것도	-408
▁시작	-409
▁치	-410
구나	-411
이상	-412
▁합	-413
▁레	-414
▁맛	-415
▁얘	-416
▁키	-417
결혼	-418
더라	-419
혐의	-420
▁관심	-421
▁근데	-422
▁문제	-423
▁건	-424
대로	-425
여자	-426
▁그래	-427
▁모르	-428
▁피해	-429
▁백종원	-430
▁느	-431
이랑	-432
하네	-433
▁20	-434
▁하나	-435
▁초	-436
리는	-437
▁벌	-438
▁탈	-439
상이	-440
야지	-441
▁이쁘	-442
▁♥	-443
▁교	-444
▁투	-445
▁편	-446
들도	-447
보고	-448
▁다시	-449
▁명	-450
▁그런	-451
▁만나	-452
▁한국	-453
▁귀	-454
▁몸	-455
▁잡	-456
▁출연	-457
▁혼자	-458
▁게	-459
▁법	-460
▁앞	-461
▁에	-462
▁없는	-463
▁인생	-464
방송	-465
폭행	-466
▁재미	-467
▁된	-468
▁리	-469
문에	-470
이네	-471
▁역시	-472
같은	-473
려고	-474
▁부모	-475
▁프로	-476
▁따	-477
에도	-478
중기	-479
▁다른	-480
”...	-481
OP	-482
▁국	-483
없는	-484
POP	-485
▁ᅲᅲ	-486
▁임신	-487
▁지금	-488
'(	-489
ᄍᄍ	-490
골목	-491
이크	-492
진영	-493
▁"“	-494
▁복귀	-495
▁아내	-496
이어트	-497
▁적	-498
년만	-499
▁솔직	-500
▁시청	-501
하세요	-502
어서	-503
▁근황	-504
▁등장	-505
▁이렇게	-506
',	-507
▁버	-508
▁표	-509
▁이미	-510
▁ᄏ	-511
▁쓰	-512
▁파	-513
적인	-514
처럼	-515
▁얼마	-516
▁갈	-517
하라	-518
▁연애	-519
▁폭로	-520
▁떠	-521
▁필	-522
이야	-523
나래	-524
충격	-525
한거	-526
!!!	-527
▁계속	-528
▁.	-529
▁닮	-530
연예	-531
재석	-532
▁NO	-533
▁없다	-534
▁멋	-535
▁빠	-536
▁운	-537
리가	-538
있는	-539
▁모습	-540
겠지	-541
아서	-542
▁같은	-543
▁예능	-544
▁됐	-545
다니	-546
정준영	-547
골목식당	-548
20	-549
;;	-550
▁직	-551
▁마음	-552
YG	-553
▁날	-554
▁약	-555
같이	-556
멤버	-557
인이	-558
▁이어	-559
▁혐의	-560
▁군	-561
▁청	-562
▁타	-563
가지	-564
는건	-565
어저	-566
인생	-567
▁감량	-568
▁최고	-569
어저께	-570
▁다이어트	-571
으니	-572
지도	-573
▁망	-574
▁믿	-575
▁존	-576
이고	-577
이트	-578
▁축하	-579
생활	-580
???	-581
▁활동	-582
10	-583
▁꽃	-584
지마	-585
▁누가	-586
▁마약	-587
▁보기	-588
▁요즘	-589
▁하고	-590
▁"[★	-591
▁얼마나	-592
ᅮᅮ	-593
▁카	-594
▁태	-595
해도	-596
▁들	-597
▁찍	-598
개월	-599
▁방탄	-600
▁성형	-601
▁자기	-602
▁故	-603
▁독	-604
▁막	-605
▁울	-606
▁캐	-607
라도	-608
정도	-609
~~~	-610
▁그러	-611
▁노래	-612
▁산다	-613
▁아냐	-614
나혼자산다	-615
ft	-616
▁통	-617
사고	-618
스터	-619
아라	-620
종국	-621
▁하차	-622
DA	-623
▁삼	-624
▁줄	-625
▁찾	-626
나요	-627
잖아	-628
▁성공	-629
▁솔직히	-630
▁과	-631
▁번	-632
▁특	-633
..'	-634
▁진심	-635
연애의	-636
▁아니고	-637
▁될	-638
우새	-639
▁[★	-640
▁재밌	-641
▁함께	-642
▁전현무	-643
▁검	-644
▁목	-645
▁채	-646
기는	-647
다가	-648
아니	-649
와서	-650
지민	-651
▁머리	-652
▁우리	-653
▁저런	-654
ᅳᅳ	-655
열애	-656
이가	-657
텐데	-658
▁돌아	-659
▁8	-660
▁순	-661
▁허	-662
아는	-663
이냐	-664
이스	-665
▁그리고	-666
▁꼭	-667
▁코	-668
▁평	-669
눈물	-670
▁ᄒᄒ	-671
▁기자	-672
▁아빠	-673
▁언급	-674
미우새	-675
HO	-676
▁취	-677
▁티	-678
▁향	-679
레기	-680
HOT	-681
▁매력	-682
▁이해	-683
었는데	-684
'[	-685
남자	-686
예진	-687
▁..	-688
▁구혜선	-689
▁극	-690
▁싸	-691
▁퇴	-692
니저	-693
촬영	-694
친구	-695
하시	-696
해야	-697
▁김태	-698
▁미모	-699
▁아무	-700
▁여성	-701
'...	-702
SHOT	-703
▁똑	-704
▁잠	-705
▁절	-706
▁질	-707
가는	-708
나오	-709
연기	-710
지막	-711
해요	-712
▁인간	-713
▁해명	-714
이라고	-715
▁그렇게	-716
▁준	-717
▁크	-718
▁큰	-719
가왕	-720
년단	-721
을까	-722
▁사기	-723
▁잘생	-724
▁한혜진	-725
▁글	-726
▁놀	-727
▁컴	-728
뉴스	-729
다는	-730
들아	-731
▁가족	-732
소년단	-733
▁마지막	-734
▁안재현	-735
SN	-736
▁갑	-737
▁은	-738
▁종	-739
사진	-740
소리	-741
어도	-742
줌마	-743
▁승리	-744
▁아직	-745
송혜교	-746
하는거	-747
▁까	-748
▁산	-749
▁증	-750
▁쳐	-751
▁학	-752
▁형	-753
겠네	-754
병헌	-755
상이몽	-756
2’	-757
▁M	-758
▁패	-759
구만	-760
책임	-761
행복	-762
▁안되	-763
▁예쁘	-764
▁출산	-765
""..'	-766
▁항	-767
남편	-768
보니	-769
이프	-770
좋은	-771
하니	-772
▁내가	-773
▁시간	-774
▁아나	-775
▁어떻	-776
▁여기	-777
▁자랑	-778
하는데	-779
동상이몽	-780
,,	-781
→'	-782
▁간	-783
▁체	-784
▁환	-785
내가	-786
는지	-787
스토	-788
시간	-789
아들	-790
▁사망	-791
▁하지	-792
▁유재석	-793
ew	-794
건모	-795
브라	-796
스럽	-797
현장	-798
iew	-799
▁고소	-800
▁세상	-801
▁죄송	-802
▁컴백	-803
▁송중기	-804
84	-805
KY	-806
▁뒤	-807
▁야	-808
▁판	-809
공개	-810
년째	-811
레스	-812
운서	-813
운전	-814
추행	-815
해주	-816
SKY	-817
▁ᄍᄍ	-818
▁들어	-819
▁멤버	-820
이크로	-821
▁소속사	-822
TView	-823
VS	-824
▁봤	-825
▁폐	-826
간밤	-827
더니	-828
유천	-829
효리	-830
SNS	-831
▁촬영	-832
▁현아	-833
면가왕	-834
적으로	-835
▁성폭행	-836
▁듣	-837
그램	-838
났다	-839
보면	-840
진짜	-841
▁몸매	-842
▁어디	-843
▁출신	-844
▁그래도	-845
BS	-846
▁로	-847
▁메	-848
▁온	-849
시언	-850
이팅	-851
!]"	-852
▁군대	-853
▁물결	-854
입니다	-855
▁피해자	-856
이크로닷	-857
.....	-858
가인	-859
고싶	-860
나는	-861
말고	-862
아요	-863
어나	-864
이면	-865
창석	-866
▁설리	-867
▁여행	-868
연예인	-869
▁어떻게	-870
▁연예계	-871
복면가왕	-872
3'	-873
▁희	-874
관계	-875
아내	-876
임신	-877
현아	-878
현주	-879
▁30	-880
▁누군	-881
▁반성	-882
▁밝힌	-883
▁부인	-884
▁제발	-885
▁현빈	-886
▁7	-887
▁꼴	-888
▁빼	-889
▁슈	-890
▁회	-891
너무	-892
유진	-893
지고	-894
폭풍	-895
▁같이	-896
▁만에	-897
▁정준영	-898
▁9	-899
▁괜	-900
▁금	-901
▁네	-902
러운	-903
수도	-904
아야	-905
윤정	-906
▁데뷔	-907
▁이지	-908
▁인기	-909
▁정도	-910
▁필요	-911
▁매니저	-912
▁알았다	-913
ᄃᄃ	-914
▁떨	-915
놓고	-916
▁가수	-917
▁문재	-918
▁이쁜	-919
▁향한	-920
▁송혜교	-921
▁아나운서	-922
▁ᄌ	-923
▁범	-924
▁프	-925
돼지	-926
디오	-927
인지	-928
하냐	-929
▁대단	-930
▁대한	-931
▁둘째	-932
▁일본	-933
▁최진	-934
▁한남	-935
▁확인	-936
▁힘내	-937
는거지	-938
미스터	-939
▁때문에	-940
▁먼	-941
▁뭘	-942
▁볼	-943
▁토	-944
동안	-945
로운	-946
이는	-947
중에	-948
초점	-949
▁고마	-950
▁느낌	-951
▁안타	-952
구혜선	-953
소속사	-954
▁박나래	-955
▁답	-956
▁뿐	-957
▁슬	-958
▁착	-959
다시	-960
만에	-961
시길	-962
자들	-963
채은	-964
▁감사	-965
▁연상	-966
▁영화	-967
▁있는	-968
▁제일	-969
▁조작	-970
▁친구	-971
▁합의	-972
!!!!	-973
▁사람들	-974
▁악플러	-975
▁용	-976
사부	-977
쏟아	-978
아가	-979
엄마	-980
없다	-981
없이	-982
엔딩	-983
였다	-984
정이	-985
최고	-986
▁결국	-987
▁기안	-988
▁된다	-989
▁레터	-990
▁보면	-991
▁불쌍	-992
▁예쁜	-993
▁음주	-994
▁정신	-995
▁처음	-996
▁해라	-997
▁힘들	-998
▁빨	-999
▁품	-1000
먹고	-1001
버지	-1002
서트	-1003
▁그렇	-1004
▁당당	-1005
▁보여	-1006
▁연하	-1007
▁이게	-1008
▁폭행	-1009
콘서트	-1010
▁아니라	-1011
▁행복한	-1012
▁궁	-1013
▁딱	-1014
▁몇	-1015
▁억	-1016
게요	-1017
경찰	-1018
깝다	-1019
는다	-1020
리아	-1021
성이	-1022
시다	-1023
영상	-1024
준호	-1025
진이	-1026
▁가능	-1027
▁김민	-1028
▁난리	-1029
▁달라	-1030
▁변신	-1031
▁인증	-1032
구하라	-1033
▁아이돌	-1034
?"	-1035
▁광	-1036
▁헤	-1037
기사	-1038
며느	-1039
승리	-1040
이니	-1041
태현	-1042
▁나온	-1043
▁아님	-1044
▁입장	-1045
▁조용	-1046
▁...	-1047
▁깜	-1048
가요	-1049
부모	-1050
성훈	-1051
에요	-1052
출연	-1053
케이	-1054
키스	-1055
한별	-1056
▁vs	-1057
▁김지	-1058
▁보는	-1059
▁불륜	-1060
▁사고	-1061
▁스타	-1062
▁이영	-1063
▁책임	-1064
▁행동	-1065
▁열애설	-1066
▁마이크로닷	-1067
▁골	-1068
▁깨	-1069
▁병	-1070
들의	-1071
머니	-1072
슈돌	-1073
아빠	-1074
여행	-1075
예능	-1076
치는	-1077
혼산	-1078
화보	-1079
▁나와	-1080
▁되는	-1081
▁둘이	-1082
▁따라	-1083
▁못생	-1084
▁별세	-1085
▁서로	-1086
▁언니	-1087
▁엄청	-1088
▁이용	-1089
▁일상	-1090
했는데	-1091
...“	-1092
▁사람이	-1093
18	-1094
▁A	-1095
▁식	-1096
스달	-1097
에는	-1098
을듯	-1099
할까	-1100
▁같다	-1101
▁기대	-1102
▁노출	-1103
▁모든	-1104
▁별로	-1105
▁언제	-1106
▁완전	-1107
▁의미	-1108
▁이승	-1109
▁자연	-1110
▁김종국	-1111
▁쓰레기	-1112
▁ᅲ	-1113
▁베	-1114
▁월	-1115
▁잊	-1116
▁터	-1117
동건	-1118
러워	-1119
삭제	-1120
악플	-1121
우성	-1122
자리	-1123
한밤	-1124
▁김수	-1125
▁나라	-1126
▁다들	-1127
▁법적	-1128
▁싫어	-1129
드라마	-1130
며느리	-1131
전현무	-1132
하면서	-1133
▁여자는	-1134
▁이상윤	-1135
▁늙	-1136
▁숨	-1137
▁옷	-1138
▁징	-1139
▁클	-1140
거리	-1141
기도	-1142
닝썬	-1143
둥이	-1144
들만	-1145
명수	-1146
샤인	-1147
소민	-1148
핑크	-1149
▁국민	-1150
▁등극	-1151
▁만남	-1152
▁은퇴	-1153
▁""'	-1154
▁데이트	-1155
▁아줌마	-1156
”...‘	-1157
▁방탄소년단	-1158
▁응원합니다	-1159
00	-1160
SS	-1161
▁걱	-1162
▁짜	-1163
▁페	-1164
가족	-1165
래요	-1166
맨스	-1167
민기	-1168
민영	-1169
사실	-1170
해인	-1171
했던	-1172
▁18	-1173
▁대상	-1174
▁무대	-1175
▁발표	-1176
▁성격	-1177
▁심경	-1178
▁양세	-1179
▁위해	-1180
▁입대	-1181
▁장미	-1182
션샤인	-1183
▁오창석	-1184
▁길	-1185
▁득	-1186
▁빚	-1187
가서	-1188
거지	-1189
계약	-1190
마약	-1191
사과	-1192
심히	-1193
위기	-1194
저씨	-1195
하자	-1196
▁12	-1197
▁강남	-1198
▁김정	-1199
▁나왔	-1200
▁주장	-1201
▁최종	-1202
▁팬들	-1203
▁합류	-1204
▁항상	-1205
▁이미지	-1206
ᄏᄏᄏᄏᄏ	-1207
1]	-1208
▁~	-1209
▁잔	-1210
▁협	-1211
라스	-1212
라이	-1213
민국	-1214
스로	-1215
어야	-1216
원희	-1217
지않	-1218
참시	-1219
▁감독	-1220
▁경찰	-1221
▁그럼	-1222
▁기억	-1223
▁본인	-1224
▁오열	-1225
▁위기	-1226
▁이름	-1227
▁자식	-1228
▁탈퇴	-1229
▁확정	-1230
나혼산	-1231
안재현	-1232
▁아닌데	-1233
▁인터뷰	-1234
▁장나라	-1235
▁저렇게	-1236
쏟아지는	-1237
”(	-1238
▁P	-1239
▁러	-1240
거같	-1241
굳이	-1242
들과	-1243
만한	-1244
서준	-1245
얼굴	-1246
오늘	-1247
을때	-1248
주고	-1249
프닝	-1250
▁11	-1251
▁많은	-1252
▁미안	-1253
▁조사	-1254
▁첫방	-1255
▁폐지	-1256
▁한번	-1257
년만에	-1258
한혜진	-1259
▁같은데	-1260
▁여자가	-1261
▁좋겠다	-1262
▁화이팅	-1263
▁낳	-1264
▁벗	-1265
▁블	-1266
▁암	-1267
▁팔	-1268
나영	-1269
빅뱅	-1270
수록	-1271
자현	-1272
조사	-1273
치고	-1274
효진	-1275
▁기부	-1276
▁됐다	-1277
▁사건	-1278
▁상처	-1279
▁안돼	-1280
▁알았	-1281
▁어린	-1282
▁음악	-1283
▁일반	-1284
▁있다	-1285
▁준비	-1286
▁측근	-1287
주세요	-1288
▁셋	-1289
▁술	-1290
▁훨	-1291
것같	-1292
난다	-1293
리스	-1294
부부	-1295
비신	-1296
이던	-1297
진모	-1298
캐슬	-1299
확인	-1300
SBS	-1301
▁걱정	-1302
▁반전	-1303
▁사회	-1304
▁수영	-1305
▁이번	-1306
▁직접	-1307
▁충격	-1308
▁표현	-1309
때문에	-1310
백종원	-1311
이채은	-1312
전참시	-1313
▁김태희	-1314
▁아니다	-1315
▁여자들	-1316
▁홍진영	-1317
▁후폭풍	-1318
▁`	-1319
▁ᄒ	-1320
▁괴	-1321
▁긴	-1322
▁늘	-1323
▁밥	-1324
▁염	-1325
▁잼	-1326
▁충	-1327
기고	-1328
나비	-1329
대응	-1330
름다	-1331
만원	-1332
민정	-1333
봐라	-1334
어울	-1335
트와	-1336
프듀	-1337
하기	-1338
한데	-1339
▁나쁜	-1340
▁둘다	-1341
▁사이	-1342
▁수준	-1343
▁어려	-1344
▁영상	-1345
▁장난	-1346
▁했다	-1347
▁헤어	-1348
▁이시언	-1349
BC	-1350
[★	-1351
▁꼬	-1352
▁탑	-1353
능력	-1354
대기	-1355
무근	-1356
불가	-1357
수종	-1358
스크	-1359
유리	-1360
이하	-1361
이혼	-1362
전에	-1363
정재	-1364
주는	-1365
채아	-1366
현우	-1367
▁결정	-1368
▁그리	-1369
▁노력	-1370
▁생활	-1371
▁아주	-1372
▁알고	-1373
▁약속	-1374
▁재회	-1375
▁죽음	-1376
▁티비	-1377
▁화사	-1378
겠지만	-1379
차이나	-1380
▁100	-1381
▁여배우	-1382
▁정해인	-1383
▁제대로	-1384
▁D	-1385
▁갔	-1386
▁걍	-1387
▁급	-1388
▁흥	-1389
건강	-1390
된다	-1391
럽다	-1392
릭터	-1393
밖에	-1394
쌈디	-1395
었나	-1396
영화	-1397
졌다	-1398
주가	-1399
지영	-1400
호사	-1401
▁감동	-1402
▁개인	-1403
▁관계	-1404
▁대표	-1405
▁외모	-1406
▁이혜	-1407
▁전문	-1408
▁포옹	-1409
송중기	-1410
▁아이유	-1411
▁아직도	-1412
▁앞으로	-1413
▁이병헌	-1414
▁콘서트	-1415
트와이스	-1416
▁韓	-1417
▁면	-1418
▁육	-1419
고은	-1420
녹화	-1421
대상	-1422
렸다	-1423
림남	-1424
만큼	-1425
섹시	-1426
수지	-1427
시고	-1428
아닌	-1429
자기	-1430
정글	-1431
주얼	-1432
지금	-1433
호텔	-1434
▁가슴	-1435
▁괜찮	-1436
▁범죄	-1437
▁애들	-1438
▁예고	-1439
▁이뻐	-1440
▁정상	-1441
▁폭풍	-1442
▁해도	-1443
▁화제	-1444
아스달	-1445
집사부	-1446
▁며느리	-1447
▁시청률	-1448
▁ᄏᄏᄏᄏᄏᄏᄏᄏ	-1449
▁덕	-1450
▁루	-1451
김성	-1452
년차	-1453
동생	-1454
라서	-1455
레이	-1456
생각	-1457
언니	-1458
예슬	-1459
접대	-1460
해보	-1461
현실	-1462
화사	-1463
▁관리	-1464
▁구속	-1465
▁나도	-1466
▁라이	-1467
▁미국	-1468
▁반응	-1469
▁삭제	-1470
▁오지	-1471
▁완벽	-1472
▁자꾸	-1473
▁자살	-1474
▁작가	-1475
▁작품	-1476
▁중국	-1477
▁하면	-1478
스토리	-1479
을텐데	-1480
▁ing	-1481
▁결혼식	-1482
▁장미희	-1483
▁추자현	-1484
▁프로그램	-1485
▁권	-1486
▁숙	-1487
▁커	-1488
▁풀	-1489
라는	-1490
봐도	-1491
웨딩	-1492
장애	-1493
정아	-1494
준일	-1495
즈원	-1496
필모	-1497
현재	-1498
▁ᅳᅳ	-1499
▁능력	-1500
▁동료	-1501
▁미투	-1502
▁보니	-1503
▁사귀	-1504
▁싶다	-1505
▁어떤	-1506
▁유포	-1507
▁질투	-1508
소유진	-1509
▁구하라	-1510
▁박명수	-1511
▁아닌가	-1512
▁논	-1513
▁담	-1514
▁맘	-1515
▁탄	-1516
가고	-1517
겠냐	-1518
달수	-1519
동근	-1520
마다	-1521
보검	-1522
살차	-1523
윤아	-1524
주의	-1525
진심	-1526
쿵쾅	-1527
호감	-1528
?..	-1529
▁고생	-1530
▁궁금	-1531
▁떨어	-1532
▁만들	-1533
▁비난	-1534
▁신경	-1535
▁신성	-1536
▁신혼	-1537
▁있었	-1538
▁조카	-1539
▁지민	-1540
▁지성	-1541
▁취소	-1542
▁캐슬	-1543
이라도	-1544
▁김건모	-1545
▁분위기	-1546
▁사생활	-1547
▁이영자	-1548
▁조용히	-1549
▁해프닝	-1550
19	-1551
▁끼	-1552
▁좌	-1553
거운	-1554
그널	-1555
나고	-1556
나도	-1557
라면	-1558
설리	-1559
신영	-1560
의사	-1561
인은	-1562
일체	-1563
있다	-1564
쟁이	-1565
태영	-1566
트시	-1567
훈훈	-1568
▁MC	-1569
▁ᅮᅮ	-1570
▁남긴	-1571
▁대체	-1572
▁뭐가	-1573
▁바로	-1574
▁불편	-1575
▁생일	-1576
▁수술	-1577
▁어울	-1578
▁없고	-1579
▁운동	-1580
▁중단	-1581
▁추모	-1582
▁퇴출	-1583
▁하루	-1584
▁해결	-1585
다니엘	-1586
살림남	-1587
하트시	-1588
▁고마워	-1589
▁남자가	-1590
▁성추행	-1591
하트시그널	-1592
▁無	-1593
▁꿀	-1594
▁놈	-1595
▁쌍	-1596
▁응	-1597
▁총	-1598
▁혜	-1599
건가	-1600
국민	-1601
그냥	-1602
기안	-1603
당히	-1604
무리	-1605
보미	-1606
뿐인	-1607
수민	-1608
수영	-1609
애들	-1610
은거	-1611
인줄	-1612
정은	-1613
종석	-1614
최종	-1615
키니	-1616
흥국	-1617
▁굳이	-1618
▁그게	-1619
▁그럴	-1620
▁노잼	-1621
▁떠나	-1622
▁말고	-1623
▁말이	-1624
▁살아	-1625
▁선택	-1626
▁시즌	-1627
▁아쉬	-1628
▁어쩌	-1629
▁예뻐	-1630
▁웃음	-1631
▁이야	-1632
▁좋았	-1633
▁주말	-1634
▁해외	-1635
으니까	-1636
일만에	-1637
~~~~	-1638
▁살래요	-1639
▁열심히	-1640
집사부일체	-1641
11	-1642
MD	-1643
▁?	-1644
▁낫	-1645
▁듯	-1646
▁삶	-1647
▁왕	-1648
▁젊	-1649
▁점	-1650
결별	-1651
고백	-1652
관심	-1653
그래	-1654
기가	-1655
기로	-1656
기를	-1657
김태	-1658
대체	-1659
대한	-1660
보아	-1661
보여	-1662
보이	-1663
산이	-1664
소연	-1665
시지	-1666
유미	-1667
정말	-1668
조선	-1669
좋아	-1670
지훈	-1671
함께	-1672
100	-1673
▁16	-1674
▁기다	-1675
▁녹화	-1676
▁다니	-1677
▁단톡	-1678
▁당연	-1679
▁뭔가	-1680
▁없네	-1681
▁여전	-1682
▁오래	-1683
▁욕먹	-1684
▁의심	-1685
▁이별	-1686
▁이서	-1687
▁인사	-1688
▁전념	-1689
▁진실	-1690
▁참여	-1691
▁체포	-1692
▁키스	-1693
라디오	-1694
아이돌	-1695
지마라	-1696
최종훈	-1697
▁시청자	-1698
▁있는데	-1699
▁주진모	-1700
▁첫사랑	-1701
▁최수종	-1702
▁한지민	-1703
▁힘내세요	-1704
”[	-1705
▁써	-1706
▁졸	-1707
▁활	-1708
간다	-1709
달라	-1710
되는	-1711
린다	-1712
미선	-1713
소원	-1714
씨가	-1715
워너	-1716
하며	-1717
한게	-1718
해투	-1719
▁ᄃᄃ	-1720
▁같아	-1721
▁건강	-1722
▁먼저	-1723
▁모두	-1724
▁불법	-1725
▁사는	-1726
▁솔로	-1727
▁신동	-1728
▁이거	-1729
▁이엘	-1730
▁재혼	-1731
▁좋다	-1732
▁폭발	-1733
▁해체	-1734
공효진	-1735
는거야	-1736
름다운	-1737
성폭행	-1738
열애설	-1739
정글의	-1740
▁만들어	-1741
▁비주얼	-1742
▁아버지	-1743
▁연기자	-1744
▁이효리	-1745
▁재미없	-1746
▁조재현	-1747
하나뿐인	-1748
▁사람들이	-1749
IS	-1750
MA	-1751
▁s	-1752
▁빈	-1753
▁즐	-1754
▁짱	-1755
▁침	-1756
▁쿨	-1757
것이	-1758
나가	-1759
됐다	-1760
미소	-1761
받고	-1762
보네	-1763
상수	-1764
생님	-1765
역시	-1766
인의	-1767
지가	-1768
하길	-1769
하이	-1770
▁결별	-1771
▁다음	-1772
▁도경	-1773
▁말도	-1774
▁상대	-1775
▁수상	-1776
▁실력	-1777
▁억울	-1778
▁여친	-1779
▁연락	-1780
▁연인	-1781
▁왜이	-1782
▁저격	-1783
▁존재	-1784
▁찾아	-1785
▁협박	-1786
아내의	-1787
하는게	-1788
홍진영	-1789
▁나오는	-1790
▁박유천	-1791
▁아무리	-1792
▁없었다	-1793
▁오달수	-1794
▁일반인	-1795
▁장윤정	-1796
▁하는거	-1797
12	-1798
TS	-1799
▁각	-1800
▁갖	-1801
▁갚	-1802
▁똥	-1803
▁짓	-1804
▁찌	-1805
▁혼	-1806
경솔	-1807
그룹	-1808
기에	-1809
나서	-1810
나이	-1811
데뷔	-1812
델루	-1813
려요	-1814
려한	-1815
많은	-1816
소영	-1817
수가	-1818
예쁜	-1819
주혁	-1820
추문	-1821
해미	-1822
후의	-1823
▁40	-1824
▁강제	-1825
▁고통	-1826
▁극복	-1827
▁김치	-1828
▁깜짝	-1829
▁꽃길	-1830
▁니들	-1831
▁몰카	-1832
▁바람	-1833
▁살인	-1834
▁세계	-1835
▁수사	-1836
▁유치	-1837
▁이젠	-1838
▁자태	-1839
▁좋겠	-1840
▁현실	-1841
고싶다	-1842
김건모	-1843
델루나	-1844
박유천	-1845
별출연	-1846
워너원	-1847
이병헌	-1848
하지마	-1849
했으면	-1850
했지만	-1851
▁박한별	-1852
▁비호감	-1853
▁얼굴이	-1854
▁한채아	-1855
......	-1856
▁ᄏᄏᄏᄏᄏ	-1857
’"	-1858
▁新	-1859
▁업	-1860
▁잃	-1861
건데	-1862
국주	-1863
궁민	-1864
그러	-1865
라리	-1866
라인	-1867
럽게	-1868
보기	-1869
분들	-1870
블리	-1871
상처	-1872
세찌	-1873
소희	-1874
수연	-1875
스런	-1876
시태	-1877
연하	-1878
이란	-1879
인듯	-1880
자가	-1881
정한	-1882
조작	-1883
진다	-1884
태임	-1885
▁19	-1886
▁거짓	-1887
▁검토	-1888
▁귀엽	-1889
▁닮았	-1890
▁대박	-1891
▁동안	-1892
▁때문	-1893
▁반박	-1894
▁발인	-1895
▁섹시	-1896
▁올라	-1897
▁종료	-1898
▁지목	-1899
▁치료	-1900
▁쿵쾅	-1901
데이트	-1902
로맨스	-1903
박나래	-1904
빕니다	-1905
시태그	-1906
이상화	-1907
인가요	-1908
2018	-1909
?...	-1910
▁문재앙	-1911
▁박서준	-1912
▁보고싶	-1913
▁아저씨	-1914
▁잘생겼	-1915
▁전라도	-1916
▁최진실	-1917
해시태그	-1918
▁대한민국	-1919
48	-1920
IP	-1921
▁겁	-1922
▁깊	-1923
▁냄	-1924
▁뜨	-1925
▁맨	-1926
▁빌	-1927
▁빛	-1928
▁쇼	-1929
▁퍼	-1930
걸로	-1931
나의	-1932
모르	-1933
미인	-1934
복을	-1935
불청	-1936
사이	-1937
성광	-1938
시켜	-1939
실히	-1940
애도	-1941
우리	-1942
이들	-1943
종현	-1944
지면	-1945
지우	-1946
지원	-1947
체가	-1948
축하	-1949
하늘	-1950
할때	-1951
해숙	-1952
해줘	-1953
희선	-1954
VIP	-1955
→""	-1956
▁ᄌᄂ	-1957
▁공식	-1958
▁나만	-1959
▁나올	-1960
▁남녀	-1961
▁달달	-1962
▁당신	-1963
▁대중	-1964
▁도전	-1965
▁많아	-1966
▁미친	-1967
▁벌써	-1968
▁사업	-1969
▁서현	-1970
▁설전	-1971
▁셋째	-1972
▁않은	-1973
▁알아	-1974
▁없음	-1975
▁없이	-1976
▁여유	-1977
▁웨딩	-1978
▁이건	-1979
▁이경	-1980
▁이러	-1981
▁있나	-1982
▁조심	-1983
▁최선	-1984
▁해야	-1985
▁황민	-1986
▁훨씬	-1987
통사고	-1988
▁김해숙	-1989
▁누군지	-1990
▁송가인	-1991
▁와이프	-1992
▁이상민	-1993
▁한고은	-1994
?""...'	-1995
?[	-1996
’,	-1997
▁S	-1998
▁묻	-1999
▁얻	-2000
▁엑	-2001
녀들	-2002
드립	-2003
디어	-2004
로서	-2005
리네	-2006
반전	-2007
방탄	-2008
비서	-2009
사장	-2010
서희	-2011
센터	-2012
어라	-2013
오열	-2014
이런	-2015
첫방	-2016
팩트	-2017
한나	-2018
,,,	-2019
BTS	-2020
▁'2	-2021
▁감정	-2022
▁개그	-2023
▁김남	-2024
▁남친	-2025
▁듣보	-2026
▁미소	-2027
▁불참	-2028
▁쌈디	-2029
▁어제	-2030
▁위한	-2031
▁이수	-2032
▁절대	-2033
▁종합	-2034
▁지인	-2035
▁최초	-2036
▁추가	-2037
▁추억	-2038
▁타이	-2039
▁하늘	-2040
▁호흡	-2041
서수연	-2042
피엔딩	-2043
????	-2044
▁고소영	-2045
▁션샤인	-2046
▁이필모	-2047
연애의맛	-2048
▁음주운전	-2049
ᄏᄏᄏᄏᄏᄏᄏᄏ	-2050
▁L	-2051
▁곧	-2052
▁꿈	-2053
▁밤	-2054
▁쉬	-2055
▁쓸	-2056
▁엉	-2057
▁왠	-2058
▁효	-2059
▁휴	-2060
걸스	-2061
게인	-2062
겹다	-2063
국에	-2064
내고	-2065
누구	-2066
더만	-2067
도전	-2068
드래	-2069
려서	-2070
리면	-2071
리야	-2072
리지	-2073
미모	-2074
빙빙	-2075
빚투	-2076
사건	-2077
성규	-2078
소라	-2079
송지	-2080
슈퍼	-2081
신혜	-2082
었던	-2083
인다	-2084
있고	-2085
작가	-2086
주원	-2087
준희	-2088
지환	-2089
직접	-2090
출산	-2091
투비	-2092
필립	-2093
현경	-2094
▁14	-2095
▁가정	-2096
▁갈등	-2097
▁공연	-2098
▁광고	-2099
▁교제	-2100
▁내편	-2101
▁동반	-2102
▁루머	-2103
▁모델	-2104
▁발견	-2105
▁불가	-2106
▁불러	-2107
▁사장	-2108
▁소송	-2109
▁아까	-2110
▁아쉽	-2111
▁엔딩	-2112
▁우려	-2113
▁유산	-2114
▁의사	-2115
▁인성	-2116
▁자신	-2117
▁탈락	-2118
▁피소	-2119
▁홍보	-2120
김비서	-2121
드래곤	-2122
손예진	-2123
어게인	-2124
였는데	-2125
잔나비	-2126
하네요	-2127
▁갈수록	-2128
▁김원희	-2129
▁김정훈	-2130
▁김흥국	-2131
▁나와서	-2132
▁남자는	-2133
▁단톡방	-2134
▁마무리	-2135
▁아니면	-2136
▁양세형	-2137
▁이용진	-2138
▁이태임	-2139
▁캐릭터	-2140
▁연상연하	-2141
▁,	-2142
▁ᅮ	-2143
▁中	-2144
▁넌	-2145
▁류	-2146
▁밀	-2147
▁씨	-2148
▁찬	-2149
▁챙	-2150
▁팀	-2151
♡♡	-2152
건지	-2153
검사	-2154
기만	-2155
김민	-2156
론을	-2157
봐야	-2158
수애	-2159
안나	-2160
에선	-2161
음악	-2162
이미	-2163
이승	-2164
이유	-2165
작진	-2166
정신	-2167
져서	-2168
조건	-2169
차피	-2170
탈출	-2171
할듯	-2172
헨리	-2173
현모	-2174
현석	-2175
▁23	-2176
▁25	-2177
▁^^	-2178
▁과거	-2179
▁나은	-2180
▁논의	-2181
▁다행	-2182
▁명품	-2183
▁부탁	-2184
▁분노	-2185
▁불화	-2186
▁빠진	-2187
▁생겼	-2188
▁선물	-2189
▁실망	-2190
▁안나	-2191
▁않나	-2192
▁에휴	-2193
▁오빠	-2194
▁요리	-2195
▁운명	-2196
▁월드	-2197
▁음식	-2198
▁이기	-2199
▁이중	-2200
▁있지	-2201
▁전부	-2202
▁절친	-2203
▁중요	-2204
▁최민	-2205
▁투약	-2206
▁평생	-2207
▁행보	-2208
▁힘든	-2209
가지고	-2210
들한테	-2211
버닝썬	-2212
행복한	-2213
▁개돼지	-2214
▁그래서	-2215
▁돌아오	-2216
▁드레스	-2217
▁모르는	-2218
▁스스로	-2219
▁양준일	-2220
▁어머니	-2221
▁이지혜	-2222
▁장동건	-2223
▁조민기	-2224
▁사실무근	-2225
▁우리나라	-2226
30	-2227
4'	-2228
OO	-2229
cm	-2230
▁ᄋ	-2231
▁끌	-2232
▁롤	-2233
▁봄	-2234
▁쉽	-2235
▁틀	-2236
▁헐	-2237
가수	-2238
가자	-2239
끼리	-2240
래퍼	-2241
런닝	-2242
민호	-2243
보는	-2244
보라	-2245
상식	-2246
석천	-2247
세계	-2248
열음	-2249
은혜	-2250
을거	-2251
이수	-2252
이제	-2253
인거	-2254
재밌	-2255
적이	-2256
지연	-2257
지현	-2258
차이	-2259
컬투	-2260
해지	-2261
황금	-2262
힐링	-2263
OOO	-2264
▁YG	-2265
▁게시	-2266
▁김종	-2267
▁돌파	-2268
▁마닷	-2269
▁먹방	-2270
▁미나	-2271
▁밝혀	-2272
▁방문	-2273
▁소름	-2274
▁스페	-2275
▁아는	-2276
▁어느	-2277
▁여러	-2278
▁여론	-2279
▁역대	-2280
▁원래	-2281
▁자리	-2282
▁집에	-2283
▁차은	-2284
▁채널	-2285
▁태도	-2286
▁퇴사	-2287
▁페미	-2288
▁품격	-2289
▁한다	-2290
▁형님	-2291
박민영	-2292
성추행	-2293
이스트	-2294
이었다	-2295
차세찌	-2296
컬투쇼	-2297
함브라	-2298
황후의	-2299
""[★	-2300
▁""♥	-2301
▁가지고	-2302
▁변호사	-2303
▁이승기	-2304
▁이유가	-2305
▁이혜성	-2306
▁조보아	-2307
▁함소원	-2308
▁강다니엘	-2309
▁쏟아지는	-2310
방탄소년단	-2311
?!	-2312
SW	-2313
→“	-2314
▁ᅳ	-2315
▁美	-2316
▁겨	-2317
▁끊	-2318
▁디	-2319
▁뜻	-2320
▁뮤	-2321
▁뻔	-2322
▁옛	-2323
▁쪽	-2324
▁탐	-2325
▁트	-2326
갈등	-2327
강경	-2328
게임	-2329
김재	-2330
당한	-2331
리얼	-2332
매력	-2333
모델	-2334
소율	-2335
수향	-2336
스케	-2337
시키	-2338
아님	-2339
었음	-2340
연승	-2341
예련	-2342
예훼	-2343
이자	-2344
인공	-2345
있음	-2346
주도	-2347
지오	-2348
효광	-2349
효주	-2350
희준	-2351
~^^	-2352
▁가장	-2353
▁관종	-2354
▁기분	-2355
▁도박	-2356
▁돼지	-2357
▁드러	-2358
▁똑같	-2359
▁많네	-2360
▁박봄	-2361
▁배려	-2362
▁병원	-2363
▁보이	-2364
▁본격	-2365
▁본다	-2366
▁블랙	-2367
▁산이	-2368
▁실종	-2369
▁않고	-2370
▁얘기	-2371
▁오해	-2372
▁유리	-2373
▁의상	-2374
▁인연	-2375
▁일단	-2376
▁입고	-2377
▁정체	-2378
▁제기	-2379
▁징역	-2380
▁짜증	-2381
▁클럽	-2382
▁탄생	-2383
▁하네	-2384
론을박	-2385
만으로	-2386
스러워	-2387
안하고	-2388
에서도	-2389
유재석	-2390
이라니	-2391
지말고	-2392
한다고	-2393
한도전	-2394
효리네	-2395
▁드디어	-2396
▁비키니	-2397
▁빕니다	-2398
▁선생님	-2399
▁애들이	-2400
▁이쁘고	-2401
▁이쁘다	-2402
▁이해가	-2403
▁잘어울	-2404
▁적당히	-2405
▁정준호	-2406
▁좋은데	-2407
▁한예슬	-2408
알함브라	-2409
▁이엘리야	-2410
40	-2411
▁K	-2412
▁뛰	-2413
▁옆	-2414
▁철	-2415
▁케	-2416
거나	-2417
겨운	-2418
네가	-2419
다른	-2420
당신	-2421
둥지	-2422
라라	-2423
바람	-2424
부분	-2425
붕어	-2426
살아	-2427
성형	-2428
세대	-2429
세연	-2430
세호	-2431
섹션	-2432
없음	-2433
였어	-2434
인석	-2435
인성	-2436
적절	-2437
지네	-2438
치료	-2439
캠핑	-2440
태국	-2441
통령	-2442
폭력	-2443
하던	-2444
했어	-2445
희롱	-2446
”..	-2447
→10	-2448
▁'1	-2449
▁“‘	-2450
▁김혜	-2451
▁누나	-2452
▁딸과	-2453
▁맨날	-2454
▁믿고	-2455
▁바꿔	-2456
▁발언	-2457
▁변화	-2458
▁부녀	-2459
▁성매	-2460
▁시선	-2461
▁시집	-2462
▁애도	-2463
▁여신	-2464
▁젊은	-2465
▁진행	-2466
▁초점	-2467
▁투병	-2468
▁패션	-2469
▁하기	-2470
▁해서	-2471
▁해킹	-2472
라이브	-2473
런닝맨	-2474
부모님	-2475
성접대	-2476
스러운	-2477
아버지	-2478
아이콘	-2479
예훼손	-2480
으면서	-2481
이라는	-2482
이시언	-2483
정우성	-2484
한지민	-2485
▁가능성	-2486
▁거짓말	-2487
▁김태리	-2488
▁명복을	-2489
▁목소리	-2490
▁문재인	-2491
▁박보검	-2492
▁버닝썬	-2493
▁봤는데	-2494
▁사과문	-2495
▁아니냐	-2496
▁연기도	-2497
▁연대기	-2498
▁예비신	-2499
▁이서진	-2500
▁이종석	-2501
▁차은우	-2502
둥지탈출	-2503
▁교통사고	-2504
▁여자들이	-2505
▁좋아하는	-2506
(2	-2507
▁F	-2508
▁J	-2509
▁★	-2510
▁父	-2511
▁깔	-2512
▁묵	-2513
▁옥	-2514
▁읽	-2515
▁탓	-2516
▁혹	-2517
▁홀	-2518
가중	-2519
경은	-2520
남매	-2521
내는	-2522
낸시	-2523
냐고	-2524
년은	-2525
도박	-2526
마음	-2527
밀리	-2528
버킷	-2529
보단	-2530
새끼	-2531
성장	-2532
세아	-2533
수있	-2534
술집	-2535
시절	-2536
엑스	-2537
왔다	-2538
유지	-2539
윤화	-2540
율희	-2541
이쁘	-2542
이혜	-2543
정현	-2544
지혜	-2545
직격	-2546
켰다	-2547
쿠라	-2548
투병	-2549
하셨	-2550
훈남	-2551
ᅲᅲᅲ	-2552
▁45	-2553
▁가득	-2554
▁공판	-2555
▁그녀	-2556
▁기적	-2557
▁놀라	-2558
▁대응	-2559
▁동생	-2560
▁득녀	-2561
▁라인	-2562
▁만든	-2563
▁멋진	-2564
▁몰라	-2565
▁물어	-2566
▁보도	-2567
▁부럽	-2568
▁빨리	-2569
▁상관	-2570
▁생긴	-2571
▁소화	-2572
▁올해	-2573
▁유명	-2574
▁유지	-2575
▁이선	-2576
▁잡은	-2577
▁저러	-2578
▁전쟁	-2579
▁제목	-2580
▁지가	-2581
▁핑크	-2582
▁하시	-2583
▁한명	-2584
▁한심	-2585
박한별	-2586
붕어빵	-2587
샤이니	-2588
스버킷	-2589
이네요	-2590
장성규	-2591
하지만	-2592
해야지	-2593
▁기억할	-2594
▁김수미	-2595
▁남궁민	-2596
▁남편이	-2597
▁논란에	-2598
▁당당한	-2599
▁도경완	-2600
▁도대체	-2601
▁등장에	-2602
▁성희롱	-2603
▁조수애	-2604
▁남자친구	-2605
▁불쌍하다	-2606
▁행복하게	-2607
'...""	-2608
·'	-2609
▁겸	-2610
▁꾸	-2611
▁높	-2612
▁뇌	-2613
▁창	-2614
가라	-2615
가락	-2616
감동	-2617
결합	-2618
경호	-2619
구라	-2620
구요	-2621
근데	-2622
김우	-2623
나면	-2624
넘은	-2625
놓은	-2626
누라	-2627
니안	-2628
랜드	-2629
러포	-2630
려라	-2631
렬한	-2632
멘트	-2633
사는	-2634
살이	-2635
서도	-2636
성공	-2637
스팅	-2638
싱글	-2639
없네	-2640
엔터	-2641
오빠	-2642
은경	-2643
은정	-2644
이솜	-2645
이킴	-2646
이틀	-2647
이현	-2648
일째	-2649
있네	-2650
종신	-2651
지웅	-2652
평생	-2653
했네	-2654
했음	-2655
히트	-2656
힘내	-2657
▁sn	-2658
▁거기	-2659
▁겁나	-2660
▁관련	-2661
▁냄새	-2662
▁뉴스	-2663
▁대기	-2664
▁동거	-2665
▁두분	-2666
▁못해	-2667
▁뭐냐	-2668
▁민폐	-2669
▁빅뱅	-2670
▁살고	-2671
▁상황	-2672
▁쉽게	-2673
▁스트	-2674
▁신고	-2675
▁싫다	-2676
▁싶은	-2677
▁애기	-2678
▁예전	-2679
▁외국	-2680
▁유이	-2681
▁이모	-2682
▁진단	-2683
▁착한	-2684
▁천만	-2685
▁축구	-2686
▁폭력	-2687
▁한상	-2688
▁항소	-2689
▁홍수	-2690
▁회사	-2691
가중계	-2692
그것이	-2693
년만의	-2694
들이나	-2695
러포즈	-2696
에서는	-2697
이상우	-2698
정유미	-2699
프로듀	-2700
’...	-2701
▁SNS	-2702
▁김종민	-2703
▁대통령	-2704
▁모르겠	-2705
▁못생긴	-2706
▁못하고	-2707
▁사쿠라	-2708
▁아깝다	-2709
▁없는데	-2710
▁염정아	-2711
▁욕하는	-2712
▁이경규	-2713
▁주인공	-2714
▁차라리	-2715
▁홍상수	-2716
무한도전	-2717
▁스트레스	-2718
▁알고싶다	-2719
▁여자들은	-2720
ᄏᄏᄏᄏᄏᄏ	-2721
'→	-2722
HI	-2723
▁軍	-2724
▁갓	-2725
▁돼	-2726
▁떡	-2727
▁띄	-2728
▁붙	-2729
▁엠	-2730
▁왔	-2731
▁웬	-2732
경사	-2733
관왕	-2734
광수	-2735
노래	-2736
니깐	-2737
다은	-2738
래서	-2739
마마	-2740
마이	-2741
멜로	-2742
미가	-2743
부대	-2744
시선	-2745
씨는	-2746
아먹	-2747
아주	-2748
아지	-2749
았던	-2750
없어	-2751
었네	-2752
였나	-2753
예요	-2754
요한	-2755
의도	-2756
의자	-2757
이사	-2758
이선	-2759
인간	-2760
일이	-2761
있어	-2762
잘못	-2763
장면	-2764
제로	-2765
주년	-2766
진아	-2767
최진	-2768
친상	-2769
학교	-2770
현정	-2771
?""	-2772
▁가요	-2773
▁감탄	-2774
▁그나	-2775
▁김성	-2776
▁남의	-2777
▁눈길	-2778
▁느껴	-2779
▁느끼	-2780
▁다녀	-2781
▁닮은	-2782
▁리얼	-2783
▁막내	-2784
▁바보	-2785
▁받아	-2786
▁봐도	-2787
▁봐라	-2788
▁상태	-2789
▁서울	-2790
▁순간	-2791
▁신청	-2792
▁아프	-2793
▁아픈	-2794
▁않는	-2795
▁않았	-2796
▁없나	-2797
▁엑소	-2798
▁오정	-2799
▁유출	-2800
▁윤아	-2801
▁이세	-2802
▁이시	-2803
▁일으	-2804
▁있을	-2805
▁자숙	-2806
▁자유	-2807
▁재앙	-2808
▁전속	-2809
▁정준	-2810
▁존나	-2811
▁충분	-2812
▁카톡	-2813
▁탐구	-2814
▁표정	-2815
▁화장	-2816
같은데	-2817
과함께	-2818
김민희	-2819
남태현	-2820
낸시랭	-2821
더걸스	-2822
드려요	-2823
때마다	-2824
스럽게	-2825
아이유	-2826
이지만	-2827
허지웅	-2828
▁갑자기	-2829
▁김지석	-2830
▁끝까지	-2831
▁나이차	-2832
▁나혼자	-2833
▁무조건	-2834
▁부모가	-2835
▁수영장	-2836
▁신성일	-2837
▁아니지	-2838
▁안타까	-2839
▁어려워	-2840
▁연기력	-2841
▁이민호	-2842
▁이정재	-2843
▁이지은	-2844
▁인간들	-2845
▁인스타	-2846
▁임현주	-2847
▁재결합	-2848
▁존재감	-2849
▁최고의	-2850
▁하는데	-2851
▁하세요	-2852
▁힘들어	-2853
뭐하세요	-2854
지드래곤	-2855
프로듀스	-2856
▁....	-2857
▁해피엔딩	-2858
연예가중계	-2859
▁ᄏᄏᄏᄏᄏᄏ	-2860
>>	-2861
▁ᄉ	-2862
▁ᄍ	-2863
▁낭	-2864
▁섭	-2865
▁젤	-2866
▁첨	-2867
▁탁	-2868
▁털	-2869
♥’	-2870
강준	-2871
거야	-2872
김새	-2873
나네	-2874
년들	-2875
년이	-2876
대에	-2877
들을	-2878
따로	-2879
뜻한	-2880
리그	-2881
마비	-2882
말로	-2883
미나	-2884
백일	-2885
벤져	-2886
봤다	-2887
부는	-2888
상우	-2889
상한	-2890
스톱	-2891
신성	-2892
악녀	-2893
어진	-2894
었지	-2895
영장	-2896
요즘	-2897
웠다	-2898
웨이	-2899
이도	-2900
일까	-2901
재근	-2902
재훈	-2903
정훈	-2904
주현	-2905
주호	-2906
지효	-2907
클럽	-2908
트리	-2909
팝업	-2910
편집	-2911
하차	-2912
학생	-2913
형님	-2914
히려	-2915
▁13	-2916
▁가왕	-2917
▁거의	-2918
▁결과	-2919
▁고지	-2920
▁공감	-2921
▁공부	-2922
▁끝났	-2923
▁내용	-2924
▁눈빛	-2925
▁니가	-2926
▁니네	-2927
▁득남	-2928
▁러브	-2929
▁마라	-2930
▁맞는	-2931
▁맞다	-2932
▁멋지	-2933
▁미혼	-2934
▁선행	-2935
▁설정	-2936
▁성장	-2937
▁수도	-2938
▁시인	-2939
▁실검	-2940
▁심장	-2941
▁싸움	-2942
▁얘는	-2943
▁억지	-2944
▁옛날	-2945
▁용서	-2946
▁유승	-2947
▁이성	-2948
▁일축	-2949
▁있어	-2950
▁정치	-2951
▁지들	-2952
▁찍어	-2953
▁참고	-2954
▁찾은	-2955
▁천재	-2956
▁추천	-2957
▁팩트	-2958
▁허위	-2959
▁훈훈	-2960
것들이	-2961
룡영화	-2962
벤져스	-2963
예비신	-2964
이열음	-2965
있는데	-2966
정소민	-2967
하는건	-2968
하더라	-2969
...”	-2970
▁KBS	-2971
▁OOO	-2972
▁게스트	-2973
▁그렇고	-2974
▁김수현	-2975
▁나오면	-2976
▁나이가	-2977
▁남자들	-2978
▁델루나	-2979
▁만났다	-2980
▁사람을	-2981
▁안타깝	-2982
▁양세종	-2983
▁여전히	-2984
▁워너원	-2985
▁이국주	-2986
▁이나영	-2987
▁이야기	-2988
▁잘하고	-2989
▁타이거	-2990
▁한지혜	-2991
인생술집	-2992
해주세요	-2993
▁아니에요	-2994
▁아이즈원	-2995
▁연예대상	-2996
▁특별출연	-2997
미스터션샤인	-2998
%"	-2999
RE	-3000
YP	-3001
]‘	-3002
▁격	-3003
▁농	-3004
▁압	-3005
▁옹	-3006
▁으	-3007
▁쟤	-3008
▁젝	-3009
가면	-3010
것들	-3011
기자	-3012
김동	-3013
김용	-3014
녹두	-3015
대가	-3016
되고	-3017
듯이	-3018
랑은	-3019
로나	-3020
메이	-3021
미화	-3022
민석	-3023
바보	-3024
보복	-3025
성애	-3026
스가	-3027
야화	-3028
역사	-3029
운동	-3030
육아	-3031
윤희	-3032
이서	-3033
일본	-3034
있냐	-3035
전일	-3036
정적	-3037
준도	-3038
집에	-3039
청원	-3040
쳤다	-3041
키로	-3042
한건	-3043
해명	-3044
했나	-3045
호동	-3046
후배	-3047
%'"	-3048
48'	-3049
MBC	-3050
▁21	-3051
▁27	-3052
▁PD	-3053
▁TV	-3054
▁가을	-3055
▁감격	-3056
▁계약	-3057
▁계집	-3058
▁괴로	-3059
▁그걸	-3060
▁두고	-3061
▁레이	-3062
▁막장	-3063
▁몰입	-3064
▁번의	-3065
▁봐야	-3066
▁부끄	-3067
▁비슷	-3068
▁새끼	-3069
▁센터	-3070
▁소식	-3071
▁솔까	-3072
▁시동	-3073
▁시점	-3074
▁식사	-3075
▁아기	-3076
▁애가	-3077
▁완료	-3078
▁왜케	-3079
▁웃기	-3080
▁이던	-3081
▁이후	-3082
▁입건	-3083
▁장동	-3084
▁조금	-3085
▁조문	-3086
▁지옥	-3087
▁직업	-3088
▁편히	-3089
▁피부	-3090
▁하여	-3091
▁학교	-3092
▁헨리	-3093
▁호텔	-3094
랍니다	-3095
브리그	-3096
사람이	-3097
아니고	-3098
와이프	-3099
이수역	-3100
장나라	-3101
톱스타	-3102
하겠다	-3103
하던데	-3104
하시길	-3105
▁게시글	-3106
▁나오고	-3107
▁듣보잡	-3108
▁로맨스	-3109
▁만나요	-3110
▁문희준	-3111
▁박민영	-3112
▁박진영	-3113
▁부럽다	-3114
▁사랑을	-3115
▁사세요	-3116
▁손예진	-3117
▁시상식	-3118
▁아쉬운	-3119
▁앞에서	-3120
▁잘생긴	-3121
▁잘하는	-3122
▁정우성	-3123
▁차태현	-3124
▁최민수	-3125
▁친구로	-3126
▁하지만	-3127
▁한남들	-3128
▁해야지	-3129
▁했는데	-3130
▁했으면	-3131
겠습니다	-3132
신과함께	-3133
전일야화	-3134
▁공개연애	-3135
▁법적대응	-3136
▁아름다운	-3137
▁연예인들	-3138
라디오스타	-3139
.3	-3140
PD	-3141
··	-3142
→‘	-3143
▁y	-3144
▁꺼	-3145
▁뉴	-3146
▁뜬	-3147
▁멀	-3148
▁뭉	-3149
▁앉	-3150
▁컨	-3151
▁흠	-3152
감격	-3153
금형	-3154
녀의	-3155
니어	-3156
다음	-3157
대화	-3158
데이	-3159
드는	-3160
드롬	-3161
때도	-3162
라니	-3163
로우	-3164
맞고	-3165
매일	-3166
머리	-3167
모습	-3168
무도	-3169
무슨	-3170
무원	-3171
문재	-3172
미란	-3173
미애	-3174
반응	-3175
백상	-3176
법적	-3177
법칙	-3178
부로	-3179
부인	-3180
부해	-3181
빼고	-3182
생민	-3183
성격	-3184
심장	-3185
싸이	-3186
아인	-3187
안녕	-3188
없고	-3189
연인	-3190
예술	-3191
우가	-3192
울까	-3193
웃음	-3194
이대	-3195
이드	-3196
이준	-3197
인트	-3198
자고	-3199
자나	-3200
잼이	-3201
정석	-3202
제동	-3203
져라	-3204
조문	-3205
지말	-3206
진구	-3207
콤한	-3208
플레	-3209
피해	-3210
하긴	-3211
하려	-3212
···	-3213
▁!!	-3214
▁'♥	-3215
▁47	-3216
▁~~	-3217
▁가식	-3218
▁가진	-3219
▁갔다	-3220
▁결방	-3221
▁고민	-3222
▁괜히	-3223
▁교체	-3224
▁끌어	-3225
▁대화	-3226
▁만난	-3227
▁먹고	-3228
▁모를	-3229
▁목격	-3230
▁못한	-3231
▁무서	-3232
▁무섭	-3233
▁사라	-3234
▁살려	-3235
▁서인	-3236
▁수지	-3237
▁안보	-3238
▁얘도	-3239
▁연결	-3240
▁예비	-3241
▁예은	-3242
▁올려	-3243
▁우정	-3244
▁웃는	-3245
▁있고	-3246
▁자주	-3247
▁전환	-3248
▁지나	-3249
▁지난	-3250
▁참석	-3251
▁처벌	-3252
▁치매	-3253
▁파장	-3254
▁편집	-3255
▁피자	-3256
▁하하	-3257
▁환경	-3258
▁황당	-3259
강한나	-3260
개월만	-3261
메이커	-3262
슈퍼맨	-3263
우효광	-3264
으려고	-3265
이하정	-3266
장동건	-3267
장윤정	-3268
최고의	-3269
최진혁	-3270
토니안	-3271
핫이슈	-3272
했다고	-3273
황금빛	-3274
]""2	-3275
▁강호동	-3276
▁괴로워	-3277
▁달라진	-3278
▁달콤한	-3279
▁당연히	-3280
▁떠났다	-3281
▁마누라	-3282
▁많은데	-3283
▁못하는	-3284
▁보여주	-3285
▁부모님	-3286
▁사랑해	-3287
▁새로운	-3288
▁서현진	-3289
▁성관계	-3290
▁수영복	-3291
▁승무원	-3292
▁신경쓰	-3293
▁신드롬	-3294
▁아닌듯	-3295
▁아들과	-3296
▁오히려	-3297
▁윤진이	-3298
▁이상한	-3299
▁이소라	-3300
▁있어요	-3301
▁자기가	-3302
▁잡았다	-3303
▁재밌게	-3304
▁좋아요	-3305
▁지켰다	-3306
▁탁재훈	-3307
▁한서희	-3308
▁했어요	-3309
사람들이	-3310
안재현과	-3311
어벤져스	-3312
지금까지	-3313
▁안타깝다	-3314
▁의미심장	-3315
▁폭풍성장	-3316
스토브리그	-3317
.1	-3318
?]	-3319
AO	-3320
▁前	-3321
▁꺾	-3322
▁덮	-3323
▁떼	-3324
▁브	-3325
▁뺏	-3326
▁쫌	-3327
▁찢	-3328
▁척	-3329
▁튀	-3330
가맨	-3331
간에	-3332
공유	-3333
끼줍	-3334
놈들	-3335
동석	-3336
되면	-3337
되지	-3338
드시	-3339
로폰	-3340
르고	-3341
리꾼	-3342
리우	-3343
만나	-3344
만남	-3345
많이	-3346
무대	-3347
문제	-3348
반박	-3349
받아	-3350
번째	-3351
벌써	-3352
보영	-3353
부러	-3354
분노	-3355
블랙	-3356
빠져	-3357
사기	-3358
상관	-3359
소녀	-3360
수미	-3361
수술	-3362
스티	-3363
시킨	-3364
신혼	-3365
아나	-3366
억원	-3367
었어	-3368
연수	-3369
였음	-3370
영석	-3371
영수	-3372
오랜	-3373
오해	-3374
용화	-3375
원래	-3376
유기	-3377
유이	-3378
으며	-3379
의식	-3380
입대	-3381
자랑	-3382
정상	-3383
정수	-3384
조국	-3385
조카	-3386
줘야	-3387
지나	-3388
체크	-3389
초에	-3390
타고	-3391
태환	-3392
토리	-3393
페미	-3394
표정	-3395
하러	-3396
하루	-3397
한번	-3398
현빈	-3399
휘재	-3400
;;;	-3401
AOA	-3402
▁'7	-3403
▁15	-3404
▁29	-3405
▁감성	-3406
▁검찰	-3407
▁그룹	-3408
▁긴장	-3409
▁김영	-3410
▁까지	-3411
▁꺾고	-3412
▁끝난	-3413
▁나타	-3414
▁단발	-3415
▁대세	-3416
▁되나	-3417
▁듣기	-3418
▁리뷰	-3419
▁말라	-3420
▁메인	-3421
▁멜로	-3422
▁모유	-3423
▁몰랐	-3424
▁뭐라	-3425
▁밀어	-3426
▁바꾸	-3427
▁받고	-3428
▁발달	-3429
▁법칙	-3430
▁보내	-3431
▁보다	-3432
▁불발	-3433
▁빼고	-3434
▁상상	-3435
▁슬픈	-3436
▁아닐	-3437
▁어지	-3438
▁열폭	-3439
▁유진	-3440
▁이다	-3441
▁이탈	-3442
▁있네	-3443
▁잘살	-3444
▁저거	-3445
▁적용	-3446
▁지연	-3447
▁지켜	-3448
▁처럼	-3449
▁추석	-3450
▁쿨한	-3451
▁키워	-3452
▁탈세	-3453
▁특히	-3454
▁품에	-3455
▁현장	-3456
끼줍쇼	-3457
달라고	-3458
뜨거운	-3459
럽스타	-3460
봤는데	-3461
사람은	-3462
서유리	-3463
성추문	-3464
슈가맨	-3465
였으면	-3466
오창석	-3467
임현주	-3468
조민기	-3469
포인트	-3470
하는지	-3471
후폭풍	-3472
ᅲᅲᅲᅲ	-3473
▁ᄒᄒᄒ	-3474
▁기레기	-3475
▁김정현	-3476
▁끊었다	-3477
▁나영석	-3478
▁나와라	-3479
▁누구야	-3480
▁됐으면	-3481
▁비아이	-3482
▁사람은	-3483
▁삼남매	-3484
▁성매매	-3485
▁소유진	-3486
▁아니야	-3487
▁어차피	-3488
▁얼굴도	-3489
▁여기서	-3490
▁여자의	-3491
▁예쁘다	-3492
▁유치장	-3493
▁유포자	-3494
▁이유는	-3495
▁이정도	-3496
▁있으니	-3497
▁전미선	-3498
▁정도면	-3499
▁첫키스	-3500
▁최진혁	-3501
▁충분히	-3502
▁코로나	-3503
▁홍윤화	-3504
★]""	-3505
전현무와	-3506
하지마라	-3507
▁공개열애	-3508
▁드라마는	-3509
▁바랍니다	-3510
▁원더걸스	-3511
럽스타그램	-3512
정글의법칙	-3513
?""...	-3514
▁아이스버킷	-3515
ᄏᄏᄏᄏᄏᄏᄏ	-3516
-'	-3517
or	-3518
▁=	-3519
▁ᄇ	-3520
▁껴	-3521
▁넣	-3522
▁놓	-3523
▁뚱	-3524
▁밉	-3525
▁봉	-3526
▁붐	-3527
▁뽐	-3528
▁웹	-3529
▁짧	-3530
▁쯧	-3531
▁칼	-3532
▁핫	-3533
▁히	-3534
거다	-3535
겠어	-3536
겠죠	-3537
그런	-3538
그럼	-3539
길래	-3540
김창	-3541
년전	-3542
노잼	-3543
놈이	-3544
다리	-3545
담한	-3546
대세	-3547
두데	-3548
땜에	-3549
레임	-3550
리폿	-3551
마크	-3552
만삭	-3553
먹는	-3554
몰카	-3555
물결	-3556
백꽃	-3557
사자	-3558
서로	-3559
선수	-3560
선영	-3561
설현	-3562
셔요	-3563
소환	-3564
시대	-3565
시착	-3566
실력	-3567
안타	-3568
았네	-3569
어가	-3570
어리	-3571
여성	-3572
여정	-3573
예비	-3574
요정	-3575
용실	-3576
월로	-3577
유출	-3578
은비	-3579
을꺼	-3580
이든	-3581
이름	-3582
이성	-3583
이해	-3584
인사	-3585
자료	-3586
정원	-3587
주차	-3588
지니	-3589
지적	-3590
진진	-3591
진화	-3592
축학	-3593
충재	-3594
티즌	-3595
피스	-3596
한국	-3597
할배	-3598
할수	-3599
해당	-3600
해진	-3601
환희	-3602
흙탕	-3603
▁게재	-3604
▁겸손	-3605
▁고충	-3606
▁골프	-3607
▁공항	-3608
▁귀여	-3609
▁그랬	-3610
▁나는	-3611
▁내려	-3612
▁눈에	-3613
▁답글	-3614
▁돈도	-3615
▁동참	-3616
▁되고	-3617
▁마블	-3618
▁몰려	-3619
▁문자	-3620
▁배웅	-3621
▁소감	-3622
▁소지	-3623
▁순위	-3624
▁신부	-3625
▁아깝	-3626
▁아침	-3627
▁아픔	-3628
▁애정	-3629
▁양씨	-3630
▁어릴	-3631
▁어찌	-3632
▁역할	-3633
▁영원	-3634
▁영입	-3635
▁예의	-3636
▁오픈	-3637
▁용병	-3638
▁우울	-3639
▁유니	-3640
▁유혹	-3641
▁이동	-3642
▁이딴	-3643
▁장면	-3644
▁전혀	-3645
▁점점	-3646
▁제니	-3647
▁죽은	-3648
▁찌질	-3649
▁참견	-3650
▁체중	-3651
▁태어	-3652
▁포르	-3653
▁프듀	-3654
▁프리	-3655
▁행사	-3656
▁호감	-3657
가세연	-3658
강성훈	-3659
그리고	-3660
김보미	-3661
김성수	-3662
김수민	-3663
김지원	-3664
김태희	-3665
나오는	-3666
냉부해	-3667
는거냐	-3668
리스마	-3669
리스트	-3670
매니저	-3671
박해미	-3672
북마크	-3673
비투비	-3674
사생활	-3675
스키스	-3676
아저씨	-3677
어놓은	-3678
윤세아	-3679
이다해	-3680
측불가	-3681
판빙빙	-3682
하다고	-3683
하시고	-3684
했어요	-3685
황장애	-3686
100'	-3687
▁"'1	-3688
▁"“8	-3689
▁ᄍᄍᄍ	-3690
▁걸그룹	-3691
▁고인의	-3692
▁귀엽고	-3693
▁그것도	-3694
▁그런거	-3695
▁김남주	-3696
▁김사랑	-3697
▁김생민	-3698
▁김희선	-3699
▁나온다	-3700
▁나중에	-3701
▁라이머	-3702
▁로이킴	-3703
▁마스크	-3704
▁문제가	-3705
▁박주호	-3706
▁박해미	-3707
▁보면서	-3708
▁불시착	-3709
▁스타일	-3710
▁아는데	-3711
▁애들은	-3712
▁여러분	-3713
▁여자랑	-3714
▁왕진진	-3715
▁유동근	-3716
▁이번엔	-3717
▁일어나	-3718
▁있는거	-3719
▁있으면	-3720
▁전소민	-3721
▁책임감	-3722
▁최준희	-3723
▁최지우	-3724
▁쿵쾅이	-3725
▁통할까	-3726
▁하나경	-3727
▁화려한	-3728
갑론을박	-3729
라디오쇼	-3730
사실무근	-3731
오늘부터	-3732
이었는데	-3733
하는것도	-3734
하지말고	-3735
한끼줍쇼	-3736
힘내세요	-3737
'...'	-3738
.."""	-3739
▁"""2	-3740
▁결혼까지	-3741
▁구속영장	-3742
▁블랙핑크	-3743
▁사랑한다	-3744
▁아줌마들	-3745
▁한국여자	-3746
.......	-3747
(1	-3748
13	-3749
MK	-3750
he	-3751
’(	-3752
→4	-3753
▁N	-3754
▁ᆢ	-3755
▁곱	-3756
▁뒷	-3757
▁맥	-3758
▁멸	-3759
▁뿌	-3760
▁엇	-3761
▁짠	-3762
▁찔	-3763
▁택	-3764
▁텐	-3765
가나	-3766
간이	-3767
갈린	-3768
감독	-3769
같음	-3770
개의	-3771
거면	-3772
겨워	-3773
결과	-3774
계속	-3775
고마	-3776
고생	-3777
군님	-3778
규리	-3779
나은	-3780
녀사	-3781
누가	-3782
느낌	-3783
달콩	-3784
두산	-3785
듀엣	-3786
랐을	-3787
러움	-3788
르는	-3789
리며	-3790
리수	-3791
리자	-3792
린지	-3793
말이	-3794
먹방	-3795
무비	-3796
바이	-3797
백이	-3798
베르	-3799
병재	-3800
부가	-3801
비치	-3802
사가	-3803
사연	-3804
상태	-3805
셔널	-3806
수면	-3807
시면	-3808
시어	-3809
아쉬	-3810
야와	-3811
약속	-3812
양세	-3813
어로	-3814
여러	-3815
연락	-3816
연중	-3817
올린	-3818
올해	-3819
와의	-3820
우는	-3821
우진	-3822
원과	-3823
유예	-3824
으려	-3825
이기	-3826
이버	-3827
인상	-3828
일듯	-3829
일만	-3830
재은	-3831
전선	-3832
젤예	-3833
주연	-3834
즈아	-3835
진경	-3836
창민	-3837
창의	-3838
쳐야	-3839
타는	-3840
태양	-3841
테이	-3842
..★	-3843
AMA	-3844
TBC	-3845
▁yg	-3846
▁“2	-3847
▁갑작	-3848
▁결실	-3849
▁고발	-3850
▁공유	-3851
▁극혐	-3852
▁꽃뱀	-3853
▁내조	-3854
▁늙은	-3855
▁다르	-3856
▁다리	-3857
▁대장	-3858
▁도와	-3859
▁돈벌	-3860
▁동시	-3861
▁되냐	-3862
▁되지	-3863
▁롤린	-3864
▁만찢	-3865
▁만화	-3866
▁맞아	-3867
▁모임	-3868
▁묵묵	-3869
▁뭐야	-3870
▁뮤지	-3871
▁미리	-3872
▁민망	-3873
▁민박	-3874
▁밖에	-3875
▁배신	-3876
▁보호	-3877
▁복수	-3878
▁비밀	-3879
▁선언	-3880
▁선예	-3881
▁소환	-3882
▁손승	-3883
▁스포	-3884
▁슬프	-3885
▁신지	-3886
▁실명	-3887
▁아시	-3888
▁안녕	-3889
▁안쓰	-3890
▁않아	-3891
▁알콩	-3892
▁얘네	-3893
▁어때	-3894
▁어쩔	-3895
▁언론	-3896
▁여주	-3897
▁연습	-3898
▁온다	-3899
▁웹툰	-3900
▁의연	-3901
▁잃은	-3902
▁잠드	-3903
▁재수	-3904
▁저도	-3905
▁전화	-3906
▁정권	-3907
▁조선	-3908
▁조언	-3909
▁지랄	-3910
▁지적	-3911
▁찍은	-3912
▁찢어	-3913
▁천호	-3914
▁추정	-3915
▁치과	-3916
▁침묵	-3917
▁크게	-3918
▁투어	-3919
▁평범	-3920
▁포착	-3921
▁하긴	-3922
▁해지	-3923
▁형제	-3924
▁호주	-3925
▁확진	-3926
▁흥행	-3927
강렬한	-3928
결별설	-3929
기태영	-3930
김재욱	-3931
녀사냥	-3932
논란의	-3933
뉴스룸	-3934
닙니다	-3935
때부터	-3936
리는거	-3937
리우드	-3938
릴레이	-3939
만하면	-3940
맙시다	-3941
메이크	-3942
변호사	-3943
생방송	-3944
송종국	-3945
스케치	-3946
신영수	-3947
악플의	-3948
었으면	-3949
윤종신	-3950
이라면	-3951
이에요	-3952
전지적	-3953
조세호	-3954
차예련	-3955
티아라	-3956
필로폰	-3957
한효주	-3958
행유예	-3959
▁강지환	-3960
▁기사를	-3961
▁나들이	-3962
▁다정한	-3963
▁대놓고	-3964
▁동영상	-3965
▁따뜻한	-3966
▁똑같은	-3967
▁라이언	-3968
▁마음이	-3969
▁만나고	-3970
▁멋지다	-3971
▁메시지	-3972
▁멤버들	-3973
▁박성광	-3974
▁박신혜	-3975
▁박태환	-3976
▁보기싫	-3977
▁살아야	-3978
▁생각해	-3979
▁샤이니	-3980
▁성추문	-3981
▁스페셜	-3982
▁신성록	-3983
▁안하고	-3984
▁안현모	-3985
▁엇갈린	-3986
▁이런거	-3987
▁이민정	-3988
▁이수근	-3989
▁이영애	-3990
▁이제야	-3991
▁있었다	-3992
▁있지만	-3993
▁자체가	-3994
▁잔나비	-3995
▁잘못된	-3996
▁정지훈	-3997
▁지들이	-3998
▁최종범	-3999
▁코리아	-4000
▁패밀리	-4001
▁표예진	-4002
▁하지마	-4003
▁했다고	-4004
▁황하나	-4005
아름다운	-4006
▁JTBC	-4007
▁MAMA	-4008
▁알콩달콩	-4009
▁예비신랑	-4010
▁웨딩사진	-4011
▁있습니다	-4012
▁전속계약	-4013
▁ᄏᄏᄏᄏᄏᄏᄏ	-4014
DJ	-4015
→1	-4016
→5	-4017
▁女	-4018
▁걷	-4019
▁북	-4020
▁빅	-4021
▁셔	-4022
▁잇	-4023
▁짝	-4024
▁찐	-4025
▁핑	-4026
갔다	-4027
강호	-4028
국이	-4029
까요	-4030
내기	-4031
낸다	-4032
너는	-4033
놀면	-4034
놀즈	-4035
늦은	-4036
님이	-4037
담화	-4038
도록	-4039
도의	-4040
도훈	-4041
동상	-4042
동원	-4043
동작	-4044
되냐	-4045
될듯	-4046
라시	-4047
락비	-4048
러쉬	-4049
만명	-4050
매너	-4051
명민	-4052
무현	-4053
미녀	-4054
미코	-4055
민이	-4056
바로	-4057
범죄	-4058
법정	-4059
보도	-4060
보임	-4061
부록	-4062
불편	-4063
블루	-4064
상의	-4065
서연	-4066
석진	-4067
석훈	-4068
선미	-4069
솔직	-4070
스레	-4071
슬플	-4072
시즌	-4073
신선	-4074
실검	-4075
아도	-4076
아치	-4077
알고	-4078
애가	-4079
앨범	-4080
약국	-4081
얘기	-4082
여신	-4083
예림	-4084
예원	-4085
외과	-4086
우승	-4087
원이	-4088
이게	-4089
이세	-4090
이젠	-4091
인건	-4092
임이	-4093
있게	-4094
있지	-4095
제대	-4096
주간	-4097
지성	-4098
지지	-4099
째딸	-4100
차별	-4101
채연	-4102
최근	-4103
카락	-4104
톡톡	-4105
투어	-4106
트롯	-4107
폭로	-4108
하든	-4109
하여	-4110
학래	-4111
회견	-4112
..?	-4113
▁17	-4114
▁50	-4115
▁PC	-4116
▁“♥	-4117
▁가서	-4118
▁가자	-4119
▁강요	-4120
▁같음	-4121
▁검거	-4122
▁것들	-4123
▁경솔	-4124
▁귀환	-4125
▁그거	-4126
▁그때	-4127
▁기록	-4128
▁끝내	-4129
▁남겨	-4130
▁놀란	-4131
▁누굴	-4132
▁대신	-4133
▁독보	-4134
▁돈이	-4135
▁동침	-4136
▁드릴	-4137
▁말기	-4138
▁메갈	-4139
▁무너	-4140
▁무시	-4141
▁무엇	-4142
▁변경	-4143
▁변제	-4144
▁별책	-4145
▁보통	-4146
▁본방	-4147
▁부족	-4148
▁비교	-4149
▁비보	-4150
▁사연	-4151
▁서언	-4152
▁선처	-4153
▁성별	-4154
▁싶어	-4155
▁어색	-4156
▁어휴	-4157
▁오보	-4158
▁요절	-4159
▁이창	-4160
▁인물	-4161
▁잘나	-4162
▁재개	-4163
▁전설	-4164
▁전한	-4165
▁정석	-4166
▁조현	-4167
▁좋고	-4168
▁좌파	-4169
▁준희	-4170
▁중심	-4171
▁집단	-4172
▁축복	-4173
▁투입	-4174
▁평창	-4175
▁폐암	-4176
▁피디	-4177
▁해요	-4178
▁혜빈	-4179
▁혼전	-4180
▁후배	-4181
겠어요	-4182
그동안	-4183
나와서	-4184
노지훈	-4185
뒷담화	-4186
등학생	-4187
무혐의	-4188
박보검	-4189
박성광	-4190
백일의	-4191
보고싶	-4192
사람들	-4193
새로운	-4194
송가인	-4195
시어부	-4196
아니냐	-4197
아줌마	-4198
야와키	-4199
어야지	-4200
엄마가	-4201
없는데	-4202
엔블루	-4203
연대기	-4204
오나라	-4205
이민정	-4206
잖아요	-4207
제작진	-4208
챌린지	-4209
캐릭터	-4210
화려한	-4211
...?	-4212
...‘	-4213
;;;;	-4214
▁sns	-4215
▁가즈아	-4216
▁강은비	-4217
▁같아요	-4218
▁결혼한	-4219
▁고주원	-4220
▁고지용	-4221
▁관계자	-4222
▁그나마	-4223
▁그대로	-4224
▁김현우	-4225
▁나오지	-4226
▁낭군님	-4227
▁누리꾼	-4228
▁니들이	-4229
▁대부분	-4230
▁러브라	-4231
▁뭐하는	-4232
▁뭐하니	-4233
▁미모의	-4234
▁박은혜	-4235
▁박하나	-4236
▁범죄자	-4237
▁붕어빵	-4238
▁빛나는	-4239
▁사람도	-4240
▁사업가	-4241
▁생각이	-4242
▁성접대	-4243
▁아들들	-4244
▁아비치	-4245
▁알아야	-4246
▁양동근	-4247
▁연기가	-4248
▁오정연	-4249
▁우울증	-4250
▁유백이	-4251
▁이뻐요	-4252
▁이채은	-4253
▁임수향	-4254
▁자신감	-4255
▁재계약	-4256
▁좋아서	-4257
▁지겹다	-4258
▁지석진	-4259
▁찍어준	-4260
▁찾았다	-4261
▁티아라	-4262
▁편하게	-4263
▁하나도	-4264
▁한의사	-4265
▁확실히	-4266
것같은데	-4267
다이어트	-4268
로맨스는	-4269
룡영화상	-4270
보복운전	-4271
아내의맛	-4272
팝인터뷰	-4273
행복하게	-4274
허스토리	-4275
▁기자회견	-4276
▁돌아왔다	-4277
▁레이놀즈	-4278
▁머리카락	-4279
▁명예훼손	-4280
▁모르겠다	-4281
▁별책부록	-4282
▁비연예인	-4283
▁시청자들	-4284
▁연예법정	-4285
▁연예인이	-4286
▁잘생기고	-4287
▁카리스마	-4288
▁트와이스	-4289
▁한국에서	-4290
미스터트롯	-4291
직격인터뷰	-4292
▁다이어트로	-4293
아스달연대기	-4294
!?	-4295
!]	-4296
.7	-4297
1'	-4298
BJ	-4299
Lo	-4300
tv	-4301
ve	-4302
’[	-4303
→7	-4304
▁!	-4305
▁:	-4306
▁V	-4307
▁b	-4308
▁日	-4309
▁넷	-4310
▁떴	-4311
▁멍	-4312
▁묘	-4313
▁빡	-4314
▁쓴	-4315
▁접	-4316
▁젖	-4317
▁컸	-4318
▁펑	-4319
▁흘	-4320
▁흡	-4321
가슴	-4322
가짜	-4323
강서	-4324
같다	-4325
개그	-4326
개인	-4327
경악	-4328
귀염	-4329
김선	-4330
나올	-4331
나와	-4332
났네	-4333
녀석	-4334
년간	-4335
느님	-4336
대는	-4337
대폰	-4338
던가	-4339
도환	-4340
동일	-4341
동주	-4342
되서	-4343
두고	-4344
등감	-4345
라지	-4346
럽고	-4347
레드	-4348
루션	-4349
만기	-4350
만히	-4351
멋진	-4352
명은	-4353
박스	-4354
범룡	-4355
벼락	-4356
보내	-4357
볶이	-4358
부끄	-4359
부답	-4360
불쌍	-4361
사풀	-4362
상을	-4363
생충	-4364
서인	-4365
성호	-4366
셀카	-4367
순이	-4368
스팟	-4369
신지	-4370
씨잼	-4371
아찔	-4372
안은	-4373
어난	-4374
어날	-4375
어린	-4376
옥빈	-4377
와도	-4378
워요	-4379
이탈	-4380
인풀	-4381
일을	-4382
일전	-4383
재영	-4384
재환	-4385
전도	-4386
전의	-4387
정환	-4388
조치	-4389
존경	-4390
좋다	-4391
줄이	-4392
즈니	-4393
지게	-4394
지창	-4395
찬오	-4396
쳐서	-4397
타임	-4398
특히	-4399
파티	-4400
하하	-4401
한듯	-4402
합의	-4403
해아	-4404
해져	-4405
혜연	-4406
회담	-4407
히든	-4408
84,	-4409
~!!	-4410
’[★	-4411
▁31	-4412
▁가시	-4413
▁것도	-4414
▁귀가	-4415
▁기본	-4416
▁김병	-4417
▁깔끔	-4418
▁나래	-4419
▁내년	-4420
▁네가	-4421
▁눈치	-4422
▁다나	-4423
▁다솜	-4424
▁덕에	-4425
▁독립	-4426
▁두번	-4427
▁마이	-4428
▁말씀	-4429
▁말을	-4430
▁말투	-4431
▁매출	-4432
▁모녀	-4433
▁무도	-4434
▁무렵	-4435
▁무례	-4436
▁물산	-4437
▁미래	-4438
▁번복	-4439
▁뽐낸	-4440
▁사용	-4441
▁사촌	-4442
▁상의	-4443
▁생기	-4444
▁생전	-4445
▁세월	-4446
▁소개	-4447
▁손흥	-4448
▁스케	-4449
▁시키	-4450
▁실수	-4451
▁실화	-4452
▁싸이	-4453
▁아마	-4454
▁안가	-4455
▁안들	-4456
▁앨범	-4457
▁양보	-4458
▁양육	-4459
▁영업	-4460
▁예쁨	-4461
▁오바	-4462
▁와서	-4463
▁외도	-4464
▁유발	-4465
▁육아	-4466
▁입술	-4467
▁있음	-4468
▁재판	-4469
▁제의	-4470
▁주연	-4471
▁준영	-4472
▁증거	-4473
▁증명	-4474
▁직원	-4475
▁직장	-4476
▁청춘	-4477
▁출국	-4478
▁친정	-4479
▁친한	-4480
▁캠핑	-4481
▁케이	-4482
▁투샷	-4483
▁파괴	-4484
▁펑펑	-4485
▁학폭	-4486
▁한참	-4487
▁했을	-4488
▁현재	-4489
▁활약	-4490
▁효과	-4491
▁훈남	-4492
▁희생	-4493
강서구	-4494
강식당	-4495
강지환	-4496
김미화	-4497
김태호	-4498
김희선	-4499
꽃할배	-4500
논스톱	-4501
동백꽃	-4502
드레스	-4503
리스탈	-4504
마비로	-4505
부적절	-4506
블리즈	-4507
사랑꾼	-4508
송지아	-4509
신성일	-4510
신재은	-4511
앞으로	-4512
약국집	-4513
이보미	-4514
재밌게	-4515
조카면	-4516
족하다	-4517
페이스	-4518
한거지	-4519
핫스팟	-4520
홍석천	-4521
.1%"	-4522
101'	-4523
▁""1	-4524
▁고현정	-4525
▁구할까	-4526
▁그동안	-4527
▁기사로	-4528
▁날벼락	-4529
▁네티즌	-4530
▁누구냐	-4531
▁닮았네	-4532
▁댓글들	-4533
▁댓글에	-4534
▁더러운	-4535
▁동반자	-4536
▁드럽게	-4537
▁딸이다	-4538
▁떡볶이	-4539
▁라디오	-4540
▁라미란	-4541
▁말하는	-4542
▁모습에	-4543
▁모습이	-4544
▁벗어나	-4545
▁보이는	-4546
▁본인이	-4547
▁빈자리	-4548
▁서인국	-4549
▁세상에	-4550
▁소이현	-4551
▁손가락	-4552
▁솔루션	-4553
▁신동엽	-4554
▁쌍둥이	-4555
▁안어울	-4556
▁안했다	-4557
▁알아서	-4558
▁애초에	-4559
▁약쟁이	-4560
▁언급에	-4561
▁엄마가	-4562
▁엄현경	-4563
▁여자도	-4564
▁여진구	-4565
▁예쁘고	-4566
▁오나라	-4567
▁울었다	-4568
▁유혹자	-4569
▁이다해	-4570
▁이상형	-4571
▁이석훈	-4572
▁이시영	-4573
▁정미애	-4574
▁제작진	-4575
▁조카와	-4576
▁좋다고	-4577
▁캐스팅	-4578
▁클라라	-4579
▁프레임	-4580
▁핑크빛	-4581
▁하는게	-4582
▁하더라	-4583
▁황민현	-4584
▁훈훈한	-4585
▁휴대폰	-4586
공개연애	-4587
메이크업	-4588
사풀인풀	-4589
플레이어	-4590
했었는데	-4591
▁결혼하고	-4592
▁고마워요	-4593
▁묵묵부답	-4594
▁사람들은	-4595
▁심경고백	-4596
▁아니라고	-4597
▁아닙니다	-4598
▁악플다는	-4599
▁악플러에	-4600
▁장미희에	-4601
▁전현무가	-4602
▁좋겠어요	-4603
▁최종우승	-4604
▁치과의사	-4605
▁하는구나	-4606
마이크로닷	-4607
아는와이프	-4608
▁나혼자산다	-4609
▁심장마비로	-4610
▁축하드려요	-4611
99	-4612
OD	-4613
ᄅᄋ	-4614
▁널	-4615
▁닥	-4616
▁썼	-4617
▁춤	-4618
가격	-4619
겨서	-4620
경기	-4621
고리	-4622
공소	-4623
공익	-4624
광의	-4625
귀엽	-4626
김연	-4627
김혜	-4628
까봐	-4629
까불	-4630
꼭질	-4631
나게	-4632
나봐	-4633
남은	-4634
누굴	-4635
는듯	-4636
당당	-4637
덩이	-4638
덮밥	-4639
도연	-4640
등장	-4641
떨어	-4642
르면	-4643
리굿	-4644
리만	-4645
리서	-4646
리카	-4647
만의	-4648
메뉴	-4649
모든	-4650
무게	-4651
무성	-4652
미운	-4653
미팅	-4654
범벅	-4655
병규	-4656
불후	-4657
빠진	-4658
뺑소	-4659
사수	-4660
사업	-4661
살인	-4662
상무	-4663
상황	-4664
석함	-4665
셔서	-4666
수빈	-4667
순재	-4668
숨바	-4669
스윙	-4670
스킨	-4671
시청	-4672
시크	-4673
신고	-4674
신기	-4675
실수	-4676
쓰는	-4677
씨도	-4678
아직	-4679
아침	-4680
악성	-4681
았음	-4682
욕망	-4683
용준	-4684
워서	-4685
원서	-4686
월의	-4687
웨그	-4688
위너	-4689
위로	-4690
위해	-4691
유나	-4692
육대	-4693
으신	-4694
이로	-4695
인권	-4696
인기	-4697
자연	-4698
자의	-4699
자필	-4700
장난	-4701
재산	-4702
전쟁	-4703
전히	-4704
절차	-4705
정우	-4706
줄게	-4707
줄알	-4708
중완	-4709
줘라	-4710
진실	-4711
청아	-4712
칼끝	-4713
태도	-4714
판매	-4715
풀려	-4716
핸섬	-4717
현금	-4718
현이	-4719
혐오	-4720
혜란	-4721
홍철	-4722
화장	-4723
회복	-4724
효림	-4725
히는	-4726
')"	-4727
500	-4728
DAY	-4729
JYP	-4730
▁24	-4731
▁90	-4732
▁DJ	-4733
▁VS	-4734
▁ᄌᄅ	-4735
▁갈증	-4736
▁갖고	-4737
▁같네	-4738
▁검색	-4739
▁것이	-4740
▁고려	-4741
▁공격	-4742
▁교육	-4743
▁금연	-4744
▁기회	-4745
▁김우	-4746
▁꾸미	-4747
▁낳은	-4748
▁내게	-4749
▁농구	-4750
▁눈이	-4751
▁답답	-4752
▁대립	-4753
▁대마	-4754
▁동방	-4755
▁될까	-4756
▁뒤집	-4757
▁들고	-4758
▁딸이	-4759
▁뛰어	-4760
▁마마	-4761
▁많다	-4762
▁말에	-4763
▁면접	-4764
▁못할	-4765
▁물론	-4766
▁뭉친	-4767
▁믿기	-4768
▁바라	-4769
▁박경	-4770
▁박수	-4771
▁반복	-4772
▁받을	-4773
▁별거	-4774
▁비율	-4775
▁비판	-4776
▁살빼	-4777
▁살지	-4778
▁삼가	-4779
▁선임	-4780
▁설마	-4781
▁섭외	-4782
▁성적	-4783
▁소연	-4784
▁소율	-4785
▁속이	-4786
▁수가	-4787
▁시켜	-4788
▁아가	-4789
▁악마	-4790
▁안달	-4791
▁안본	-4792
▁안에	-4793
▁안티	-4794
▁안해	-4795
▁알려	-4796
▁알츠	-4797
▁암튼	-4798
▁언젠	-4799
▁열까	-4800
▁영재	-4801
▁예원	-4802
▁오랜	-4803
▁옷이	-4804
▁완성	-4805
▁외식	-4806
▁욕심	-4807
▁운전	-4808
▁의지	-4809
▁이리	-4810
▁이준	-4811
▁인맥	-4812
▁임산	-4813
▁입맛	-4814
▁입성	-4815
▁자택	-4816
▁잘사	-4817
▁장백	-4818
▁저질	-4819
▁정식	-4820
▁제로	-4821
▁제보	-4822
▁제시	-4823
▁조치	-4824
▁주작	-4825
▁죽고	-4826
▁죽인	-4827
▁진지	-4828
▁집안	-4829
▁청구	-4830
▁추락	-4831
▁치명	-4832
▁퇴물	-4833
▁파격	-4834
▁판매	-4835
▁평소	-4836
▁폭소	-4837
▁한거	-4838
▁흡연	-4839
▁희열	-4840
결혼식	-4841
고마워	-4842
그렇게	-4843
김연지	-4844
김옥빈	-4845
김우림	-4846
김유지	-4847
나보다	-4848
내투어	-4849
노브라	-4850
녹두전	-4851
누구냐	-4852
도하고	-4853
동영상	-4854
들만의	-4855
로서기	-4856
마스크	-4857
박명수	-4858
보다는	-4859
비주의	-4860
뺑소니	-4861
사랑의	-4862
성동일	-4863
세젤예	-4864
셨어요	-4865
스킨십	-4866
시크릿	-4867
식으로	-4868
안현모	-4869
았으면	-4870
양준일	-4871
여자가	-4872
열심히	-4873
위대한	-4874
유아인	-4875
이혜원	-4876
임이의	-4877
정경호	-4878
정재용	-4879
조재현	-4880
최지우	-4881
타고난	-4882
테이블	-4883
표예진	-4884
하겠지	-4885
하이머	-4886
홍진경	-4887
...2	-4888
”..‘	-4889
▁VOD	-4890
▁가세요	-4891
▁강성훈	-4892
▁강현석	-4893
▁같아서	-4894
▁고혜란	-4895
▁관심도	-4896
▁그럴까	-4897
▁그렇지	-4898
▁그만좀	-4899
▁기다려	-4900
▁김범룡	-4901
▁남겨둔	-4902
▁노브라	-4903
▁노홍철	-4904
▁느낌이	-4905
▁니들은	-4906
▁대단한	-4907
▁댓글이	-4908
▁돈많은	-4909
▁돌아가	-4910
▁들어오	-4911
▁떠나보	-4912
▁마세요	-4913
▁못생겼	-4914
▁못한다	-4915
▁미혼모	-4916
▁발연기	-4917
▁방송국	-4918
▁보인다	-4919
▁부러워	-4920
▁부친상	-4921
▁사실상	-4922
▁살아라	-4923
▁생각나	-4924
▁서강준	-4925
▁소지섭	-4926
▁송창의	-4927
▁시작된	-4928
▁신다은	-4929
▁실제로	-4930
▁아들이	-4931
▁아스달	-4932
▁양아치	-4933
▁얼굴은	-4934
▁없어요	-4935
▁여자를	-4936
▁연습생	-4937
▁오지게	-4938
▁옥주현	-4939
▁올해의	-4940
▁완벽한	-4941
▁유상무	-4942
▁유승준	-4943
▁이쁘네	-4944
▁이쁜데	-4945
▁이중고	-4946
▁이창섭	-4947
▁있다고	-4948
▁잠자리	-4949
▁저정도	-4950
▁전문의	-4951
▁정신병	-4952
▁제주도	-4953
▁최종훈	-4954
▁태어나	-4955
▁판빙빙	-4956
▁하여간	-4957
▁한국에	-4958
▁홍석천	-4959
▁황민과	-4960
눈물범벅	-4961
도시어부	-4962
드립니다	-4963
아이즈원	-4964
악녀스런	-4965
욕망커플	-4966
태도논란	-4967
특별출연	-4968
~~~~~	-4969
▁"""♥	-4970
▁뉴이스트	-4971
▁드라마가	-4972
▁방송에서	-4973
▁본방사수	-4974
▁사고에도	-4975
▁시청자도	-4976
▁안타까운	-4977
▁알았는데	-4978
▁원테이블	-4979
▁처음부터	-4980
단독인터뷰	-4981
동석했지만	-4982
호텔델루나	-4983
▁알츠하이머	-4984
▁연예인들이	-4985
▁행복하세요	-4986
)(	-4987
31	-4988
st	-4989
▁j	-4990
▁곽	-4991
▁꼽	-4992
▁낙	-4993
▁년	-4994
▁님	-4995
▁빙	-4996
▁빵	-4997
▁쇄	-4998
▁앙	-4999
▁앵	-5000
▁풍	-5001
▁핀	-5002
▁혈	-5003
▁휘	-5004
▁흑	-5005
갑다	-5006
강타	-5007
강탈	-5008
같아	-5009
개론	-5010
거냐	-5011
거든	-5012
검하	-5013
것만	-5014
것을	-5015
겨진	-5016
고소	-5017
공방	-5018
공복	-5019
구석	-5020
구파	-5021
궁금	-5022
궁합	-5023
그레	-5024
그만	-5025
기작	-5026
깜짝	-5027
깨비	-5028
네킹	-5029
노출	-5030
놨다	-5031
다발	-5032
대본	-5033
대의	-5034
댄스	-5035
던지	-5036
돌림	-5037
둥맘	-5038
드만	-5039
디스	-5040
때는	-5041
래원	-5042
로써	-5043
로잡	-5044
록의	-5045
루디	-5046
리게	-5047
리엄	-5048
린거	-5049
림프	-5050
마디	-5051
만파	-5052
맞는	-5053
먼스	-5054
면허	-5055
명이	-5056
명한	-5057
무진	-5058
미국	-5059
박서	-5060
박이	-5061
발표	-5062
방터	-5063
불법	-5064
쁠까	-5065
서는	-5066
세븐	-5067
센스	-5068
소나	-5069
쇼미	-5070
수준	-5071
시효	-5072
식이	-5073
신동	-5074
신작	-5075
싫다	-5076
안한	-5077
양성	-5078
어른	-5079
어싱	-5080
언트	-5081
엔드	-5082
연상	-5083
연희	-5084
영웅	-5085
영자	-5086
예서	-5087
오또	-5088
와요	-5089
우다	-5090
운데	-5091
일도	-5092
일억	-5093
일정	-5094
입담	-5095
자는	-5096
잠적	-5097
장동	-5098
장모	-5099
장훈	-5100
저기	-5101
정국	-5102
정을	-5103
정희	-5104
제발	-5105
져요	-5106
졌네	-5107
주장	-5108
준열	-5109
지에	-5110
쩐다	-5111
천사	-5112
총경	-5113
최민	-5114
출발	-5115
충수	-5116
치미	-5117
커피	-5118
탐정	-5119
태연	-5120
트로	-5121
파도	-5122
판왕	-5123
패션	-5124
편히	-5125
폭발	-5126
표수	-5127
한가	-5128
해피	-5129
행동	-5130
혜원	-5131
획사	-5132
힐까	-5133
'→'	-5134
200	-5135
’”"	-5136
▁'♡	-5137
▁32	-5138
▁43	-5139
▁DM	-5140
▁강렬	-5141
▁걸로	-5142
▁걸크	-5143
▁경신	-5144
▁계획	-5145
▁골목	-5146
▁괴롭	-5147
▁김숙	-5148
▁나름	-5149
▁내내	-5150
▁내일	-5151
▁단체	-5152
▁대학	-5153
▁돌발	-5154
▁동갑	-5155
▁되게	-5156
▁되면	-5157
▁들이	-5158
▁뚱뚱	-5159
▁뜬금	-5160
▁래퍼	-5161
▁만날	-5162
▁망신	-5163
▁맥주	-5164
▁멸종	-5165
▁뭐지	-5166
▁뭔지	-5167
▁바지	-5168
▁반대	-5169
▁반려	-5170
▁밤샘	-5171
▁버는	-5172
▁별루	-5173
▁부들	-5174
▁북한	-5175
▁분들	-5176
▁분명	-5177
▁사내	-5178
▁사죄	-5179
▁살길	-5180
▁상속	-5181
▁상해	-5182
▁성인	-5183
▁소리	-5184
▁속상	-5185
▁손잡	-5186
▁순산	-5187
▁시기	-5188
▁시끄	-5189
▁식당	-5190
▁쏟아	-5191
▁악성	-5192
▁않게	-5193
▁알바	-5194
▁애교	-5195
▁얘가	-5196
▁언플	-5197
▁엠씨	-5198
▁연극	-5199
▁연속	-5200
▁연출	-5201
▁열정	-5202
▁예뻤	-5203
▁예수	-5204
▁예정	-5205
▁온유	-5206
▁올린	-5207
▁왜들	-5208
▁욕설	-5209
▁우연	-5210
▁웬디	-5211
▁유행	-5212
▁의무	-5213
▁이분	-5214
▁일베	-5215
▁일파	-5216
▁임창	-5217
▁입학	-5218
▁자극	-5219
▁자체	-5220
▁작은	-5221
▁전과	-5222
▁전반	-5223
▁제출	-5224
▁조영	-5225
▁중인	-5226
▁증량	-5227
▁지친	-5228
▁집중	-5229
▁집착	-5230
▁쯧쯧	-5231
▁천명	-5232
▁청산	-5233
▁최소	-5234
▁최악	-5235
▁친분	-5236
▁친형	-5237
▁튀김	-5238
▁판단	-5239
▁퍼포	-5240
▁표절	-5241
▁하냐	-5242
▁하에	-5243
▁한테	-5244
▁할까	-5245
▁황태	-5246
▁후회	-5247
가자백	-5248
건축학	-5249
겠네요	-5250
겠다고	-5251
기생충	-5252
김나영	-5253
김새론	-5254
까불이	-5255
나고파	-5256
나오면	-5257
당신이	-5258
대화의	-5259
더이상	-5260
들에게	-5261
라이프	-5262
료사고	-5263
림프종	-5264
문재인	-5265
박보영	-5266
봅니다	-5267
사업가	-5268
손지창	-5269
손현주	-5270
스럽다	-5271
스스로	-5272
스토랑	-5273
신혼집	-5274
아닌가	-5275
양다리	-5276
여전히	-5277
역으로	-5278
와이드	-5279
와중에	-5280
윌리엄	-5281
이국주	-5282
이승기	-5283
이언트	-5284
이종석	-5285
이종현	-5286
일수도	-5287
적절한	-5288
태국서	-5289
하려고	-5290
한서희	-5291
한채아	-5292
허안나	-5293
홍상수	-5294
화이팅	-5295
확인중	-5296
황미나	-5297
▁'11	-5298
▁200	-5299
▁SBS	-5300
▁감격의	-5301
▁감정이	-5302
▁개그맨	-5303
▁공효진	-5304
▁그런데	-5305
▁기자님	-5306
▁김충재	-5307
▁김현주	-5308
▁끝판왕	-5309
▁나쁜예	-5310
▁네이버	-5311
▁노래는	-5312
▁노래방	-5313
▁될게요	-5314
▁들어가	-5315
▁똑바로	-5316
▁류필립	-5317
▁마네킹	-5318
▁만나서	-5319
▁만들길	-5320
▁많아서	-5321
▁뭐라고	-5322
▁밝힐까	-5323
▁배우들	-5324
▁백지영	-5325
▁복귀설	-5326
▁봤어요	-5327
▁사과할	-5328
▁사랑의	-5329
▁사로잡	-5330
▁사이에	-5331
▁소개팅	-5332
▁손승원	-5333
▁송종국	-5334
▁스페인	-5335
▁시간에	-5336
▁신혜선	-5337
▁신혼집	-5338
▁싸가지	-5339
▁아쉽다	-5340
▁악플달	-5341
▁악플에	-5342
▁없어서	-5343
▁역겹다	-5344
▁연기는	-5345
▁열애중	-5346
▁왜이리	-5347
▁윤소희	-5348
▁이광수	-5349
▁이래서	-5350
▁이수진	-5351
▁인기가	-5352
▁임영웅	-5353
▁입국에	-5354
▁입니다	-5355
▁장백지	-5356
▁재밌다	-5357
▁정겨운	-5358
▁정신차	-5359
▁조미녀	-5360
▁조윤희	-5361
▁지내는	-5362
▁진실은	-5363
▁차기작	-5364
▁참고인	-5365
▁첫등장	-5366
▁크러쉬	-5367
▁팔로우	-5368
▁폐지를	-5369
▁포방터	-5370
▁피어싱	-5371
▁피의자	-5372
▁하는지	-5373
▁하늘로	-5374
▁하면서	-5375
▁한은정	-5376
▁합니다	-5377
▁홍수현	-5378
▁희생양	-5379
강경대응	-5380
거같은데	-5381
공복자들	-5382
김비서가	-5383
남자친구	-5384
대한민국	-5385
솔약국집	-5386
숨바꼭질	-5387
씨엔블루	-5388
안타깝다	-5389
엔드게임	-5390
일억개의	-5391
정준영과	-5392
좋아하는	-5393
지마세요	-5394
추가자백	-5395
캠핑클럽	-5396
프러포즈	-5397
""→""	-5398
▁2018	-5399
▁국민청원	-5400
▁깔끔하게	-5401
▁대기록의	-5402
▁대단하다	-5403
▁돌아오길	-5404
▁러브라인	-5405
▁볼때마다	-5406
▁사망사고	-5407
▁순위조작	-5408
▁어디까지	-5409
▁없습니다	-5410
▁연결고리	-5411
▁일파만파	-5412
▁자연스레	-5413
▁좋았는데	-5414
▁진실공방	-5415
▁축하해요	-5416
▁타이거즈	-5417
▁퍼포먼스	-5418
▁프러포즈	-5419
▁행복하다	-5420
풀려나고파	-5421
▁월드와이드	-5422
,2	-5423
.!	-5424
.2	-5425
OV	-5426
SM	-5427
~!	-5428
’”	-5429
→2	-5430
▁T	-5431
▁m	-5432
▁ᄀ	-5433
▁ᄂ	-5434
▁ᄃ	-5435
▁굴	-5436
▁낼	-5437
▁됨	-5438
▁딴	-5439
▁뽀	-5440
▁색	-5441
▁쾌	-5442
♥→	-5443
감한	-5444
갖고	-5445
개념	-5446
거임	-5447
걸고	-5448
걸까	-5449
게되	-5450
계자	-5451
고민	-5452
국사	-5453
군요	-5454
근혜	-5455
금지	-5456
급체	-5457
기전	-5458
김영	-5459
나온	-5460
냉장	-5461
누나	-5462
는것	-5463
다면	-5464
닥터	-5465
달달	-5466
닮은	-5467
답답	-5468
대표	-5469
둘이	-5470
드라	-5471
든지	-5472
라나	-5473
락자	-5474
랑이	-5475
러기	-5476
로는	-5477
르몬	-5478
리즈	-5479
링이	-5480
마닷	-5481
만화	-5482
많네	-5483
말은	-5484
먼트	-5485
메라	-5486
못해	-5487
뮤지	-5488
미래	-5489
미투	-5490
민박	-5491
발로	-5492
밤만	-5493
버렸	-5494
벽에	-5495
별로	-5496
병길	-5497
봤자	-5498
부신	-5499
분의	-5500
블타	-5501
비스	-5502
빨리	-5503
사칭	-5504
산체	-5505
상위	-5506
상진	-5507
세미	-5508
세정	-5509
소서	-5510
속상	-5511
스더	-5512
스코	-5513
스파	-5514
승진	-5515
승현	-5516
시장	-5517
시후	-5518
신경	-5519
신곡	-5520
신양	-5521
실듯	-5522
심은	-5523
싸움	-5524
아오	-5525
아픈	-5526
억울	-5527
억의	-5528
에이	-5529
여서	-5530
연맛	-5531
연서	-5532
우린	-5533
운명	-5534
유명	-5535
으러	-5536
이경	-5537
이만	-5538
이뻐	-5539
이죠	-5540
인정	-5541
자식	-5542
작은	-5543
작품	-5544
잘자	-5545
저도	-5546
절남	-5547
조가	-5548
준비	-5549
중한	-5550
청성	-5551
총장	-5552
치기	-5553
치도	-5554
크고	-5555
클래	-5556
트랙	-5557
합격	-5558
했냐	-5559
허니	-5560
허위	-5561
형식	-5562
형이	-5563
호피	-5564
혹사	-5565
회사	-5566
""→	-5567
'-'	-5568
.3%	-5569
OVE	-5570
ᄒᄒᄒ	-5571
→43	-5572
▁60	-5573
▁SM	-5574
▁‘4	-5575
▁가해	-5576
▁강경	-5577
▁개념	-5578
▁거다	-5579
▁건드	-5580
▁겨울	-5581
▁고르	-5582
▁고만	-5583
▁귀국	-5584
▁글로	-5585
▁기어	-5586
▁김동	-5587
▁깊은	-5588
▁깨달	-5589
▁끝에	-5590
▁나대	-5591
▁남아	-5592
▁너도	-5593
▁너희	-5594
▁노답	-5595
▁노코	-5596
▁닥쳐	-5597
▁닮아	-5598
▁담배	-5599
▁대범	-5600
▁대본	-5601
▁대처	-5602
▁데려	-5603
▁도끼	-5604
▁듀엣	-5605
▁똑똑	-5606
▁라고	-5607
▁리턴	-5608
▁마크	-5609
▁말아	-5610
▁머가	-5611
▁멋있	-5612
▁몇개	-5613
▁못보	-5614
▁문의	-5615
▁미녀	-5616
▁미쳤	-5617
▁밉상	-5618
▁박일	-5619
▁방법	-5620
▁범해	-5621
▁변명	-5622
▁보러	-5623
▁보소	-5624
▁보아	-5625
▁보임	-5626
▁부담	-5627
▁부재	-5628
▁불구	-5629
▁비싸	-5630
▁빨아	-5631
▁사생	-5632
▁살면	-5633
▁살이	-5634
▁새로	-5635
▁서은	-5636
▁설명	-5637
▁세금	-5638
▁속옷	-5639
▁수시	-5640
▁숙소	-5641
▁시원	-5642
▁식상	-5643
▁신분	-5644
▁실감	-5645
▁아역	-5646
▁아예	-5647
▁아재	-5648
▁아파	-5649
▁안무	-5650
▁애인	-5651
▁야구	-5652
▁어딜	-5653
▁어플	-5654
▁없지	-5655
▁예약	-5656
▁오협	-5657
▁완치	-5658
▁용기	-5659
▁운집	-5660
▁원호	-5661
▁유시	-5662
▁유연	-5663
▁율희	-5664
▁이걸	-5665
▁이명	-5666
▁이사	-5667
▁이은	-5668
▁이쯤	-5669
▁인류	-5670
▁입덕	-5671
▁입수	-5672
▁잊지	-5673
▁작작	-5674
▁잠꼬	-5675
▁장관	-5676
▁재차	-5677
▁저게	-5678
▁전격	-5679
▁전에	-5680
▁전형	-5681
▁정든	-5682
▁제가	-5683
▁젝키	-5684
▁조롱	-5685
▁조만	-5686
▁조정	-5687
▁존중	-5688
▁졸라	-5689
▁좋을	-5690
▁좋음	-5691
▁죄냐	-5692
▁죄다	-5693
▁줄여	-5694
▁중에	-5695
▁증상	-5696
▁지속	-5697
▁지아	-5698
▁진출	-5699
▁청순	-5700
▁초심	-5701
▁초청	-5702
▁총경	-5703
▁최근	-5704
▁최대	-5705
▁출격	-5706
▁취재	-5707
▁측이	-5708
▁키우	-5709
▁키울	-5710
▁토크	-5711
▁통화	-5712
▁포기	-5713
▁포함	-5714
▁핑계	-5715
▁하든	-5716
▁하려	-5717
▁하자	-5718
▁한게	-5719
▁한류	-5720
▁했지	-5721
▁호란	-5722
▁호통	-5723
▁확실	-5724
▁활짝	-5725
▁회식	-5726
▁희망	-5727
▁힐링	-5728
♥""	-5729
강아지	-5730
것처럼	-5731
겹경사	-5732
그래도	-5733
급체포	-5734
기전에	-5735
김성은	-5736
김소연	-5737
김우빈	-5738
김준호	-5739
김혜윤	-5740
냉장고	-5741
는거고	-5742
는건가	-5743
는구나	-5744
니스트	-5745
덩어리	-5746
돈으로	-5747
득표수	-5748
들었다	-5749
류필립	-5750
리케이	-5751
미인애	-5752
박진영	-5753
발그레	-5754
베르토	-5755
보석함	-5756
보세요	-5757
비키니	-5758
산체스	-5759
선정적	-5760
소리가	-5761
수미네	-5762
시켜라	-5763
심은경	-5764
아니라	-5765
아빠는	-5766
아빠랑	-5767
아빠와	-5768
아육대	-5769
악플에	-5770
안주가	-5771
알아서	-5772
았는데	-5773
어머니	-5774
어차피	-5775
었다고	-5776
에게는	-5777
여자들	-5778
오또맘	-5779
원만한	-5780
윤지오	-5781
이광수	-5782
이라서	-5783
이상설	-5784
이선빈	-5785
이성미	-5786
이승윤	-5787
이지은	-5788
이지훈	-5789
이필모	-5790
재밌는	-5791
잼잼이	-5792
전미선	-5793
정도로	-5794
정소영	-5795
제동도	-5796
조연상	-5797
지하고	-5798
추성훈	-5799
키스신	-5800
탈락자	-5801
탕웨이	-5802
하겠네	-5803
하정우	-5804
할게요	-5805
해지는	-5806
현아의	-5807
화사라	-5808
화유기	-5809
0.3%	-5810
1000	-5811
↑...	-5812
▁'25	-5813
▁'99	-5814
▁ᅲᅲᅲ	-5815
▁강한나	-5816
▁개소리	-5817
▁결정한	-5818
▁결혼할	-5819
▁겸손한	-5820
▁과감한	-5821
▁괜찮아	-5822
▁권상우	-5823
▁그러니	-5824
▁그런가	-5825
▁근황에	-5826
▁기사가	-5827
▁기자야	-5828
▁김명민	-5829
▁김소연	-5830
▁김영희	-5831
▁김주혁	-5832
▁꽃길만	-5833
▁나오네	-5834
▁남편도	-5835
▁내놨다	-5836
▁눈으로	-5837
▁닮아가	-5838
▁당사자	-5839
▁당했다	-5840
▁더럽게	-5841
▁더블타	-5842
▁데리고	-5843
▁떠난다	-5844
▁레드립	-5845
▁막내딸	-5846
▁맙시다	-5847
▁매력이	-5848
▁모르고	-5849
▁무섭다	-5850
▁문제로	-5851
▁물어뜯	-5852
▁뮤지컬	-5853
▁미스터	-5854
▁민지영	-5855
▁바꾸기	-5856
▁박지민	-5857
▁받아야	-5858
▁배우가	-5859
▁변천사	-5860
▁보는거	-5861
▁보니까	-5862
▁불륜설	-5863
▁불합격	-5864
▁비현실	-5865
▁사기친	-5866
▁사촌형	-5867
▁상태는	-5868
▁선후배	-5869
▁성공한	-5870
▁속에도	-5871
▁송윤아	-5872
▁스토리	-5873
▁실화냐	-5874
▁싫으면	-5875
▁쏟아진	-5876
▁아름다	-5877
▁안되는	-5878
▁안보고	-5879
▁암투병	-5880
▁앙상한	-5881
▁야무진	-5882
▁양현석	-5883
▁어때서	-5884
▁어리고	-5885
▁얻었다	-5886
▁엄마의	-5887
▁없으니	-5888
▁여친과	-5889
▁연기를	-5890
▁예뻐요	-5891
▁예쁘게	-5892
▁오늘은	-5893
▁올리면	-5894
▁외국인	-5895
▁요즘은	-5896
▁윌리엄	-5897
▁유병재	-5898
▁유인석	-5899
▁이러고	-5900
▁이쁘게	-5901
▁이쁘긴	-5902
▁이승윤	-5903
▁이재영	-5904
▁이정은	-5905
▁이제는	-5906
▁이중성	-5907
▁인기상	-5908
▁인성이	-5909
▁일부러	-5910
▁임산부	-5911
▁잔혹사	-5912
▁잘못한	-5913
▁잘하네	-5914
▁장자연	-5915
▁저격글	-5916
▁저격에	-5917
▁전재산	-5918
▁정경호	-5919
▁정신적	-5920
▁제치고	-5921
▁조영구	-5922
▁조인성	-5923
▁주세요	-5924
▁줄줄이	-5925
▁지금은	-5926
▁진흙탕	-5927
▁질문에	-5928
▁집에서	-5929
▁차에서	-5930
▁차예련	-5931
▁처음엔	-5932
▁터졌다	-5933
▁통편집	-5934
▁팬들이	-5935
▁포르테	-5936
▁품절남	-5937
▁프로필	-5938
▁하승진	-5939
▁학구파	-5940
▁한녀들	-5941
▁한다고	-5942
▁한마디	-5943
▁한효주	-5944
▁홍지민	-5945
▁확인한	-5946
강다니엘	-5947
경솔하게	-5948
계약해지	-5949
도아니고	-5950
명예훼손	-5951
악플의밤	-5952
오나라와	-5953
임현주는	-5954
장미인애	-5955
주연배우	-5956
짠내투어	-5957
청성부대	-5958
프로그램	-5959
하이바이	-5960
?""..	-5961
▁ᅲᅲᅲᅲ	-5962
▁강제소환	-5963
▁개돼지들	-5964
▁공항패션	-5965
▁긴급체포	-5966
▁노코멘트	-5967
▁누리꾼들	-5968
▁동안미모	-5969
▁백종원의	-5970
▁선생님과	-5971
▁손흥민이	-5972
▁아니지만	-5973
▁안재현과	-5974
▁알았냐고	-5975
▁어쩌라고	-5976
▁여유로운	-5977
▁이혜성이	-5978
▁자연스런	-5979
▁자이언트	-5980
▁잠자리에	-5981
▁재미없다	-5982
▁전반조작	-5983
▁전형적인	-5984
▁증명사진	-5985
▁카이스트	-5986
▁행동했다	-5987
건강이상설	-5988
건강합니다	-5989
트랙리스트	-5990
행복하세요	-5991
현장스케치	-5992
효리네민박	-5993
..."""	-5994
...""'	-5995
▁"""29	-5996
▁갑작스러운	-5997
▁구속영장도	-5998
▁더블타이틀	-5999
▁마지막까지	-6000
▁축하합니다	-6001
!!!!!!!!	-6002
........	-6003
""...'2018	-6004
.4	-6005
14	-6006
32	-6007
3’	-6008
DM	-6009
bs	-6010
ow	-6011
th	-6012
ᆢᆢ	-6013
▁c	-6014
▁g	-6015
▁곤	-6016
▁낸	-6017
▁돋	-6018
▁뚝	-6019
▁린	-6020
▁뷔	-6021
▁싼	-6022
▁썸	-6023
▁워	-6024
▁쩔	-6025
▁쭉	-6026
▁찰	-6027
▁컷	-6028
▁푸	-6029
▁핵	-6030
▁햇	-6031
♥`	-6032
가에	-6033
각심	-6034
강력	-6035
계정	-6036
과학	-6037
광희	-6038
구속	-6039
국내	-6040
군복	-6041
군살	-6042
그렇	-6043
그로	-6044
극비	-6045
기다	-6046
기대	-6047
기상	-6048
기억	-6049
긴다	-6050
김경	-6051
깊은	-6052
나기	-6053
나인	-6054
난한	-6055
날이	-6056
년생	-6057
눈길	-6058
뉴뮤	-6059
니트	-6060
다행	-6061
담비	-6062
던거	-6063
도위	-6064
독보	-6065
동산	-6066
동훈	-6067
되어	-6068
드네	-6069
드신	-6070
따라	-6071
때다	-6072
란다	-6073
란히	-6074
러우	-6075
로만	-6076
르다	-6077
리냐	-6078
리다	-6079
리들	-6080
리텔	-6081
림픽	-6082
립전	-6083
링킹	-6084
마저	-6085
마트	-6086
막장	-6087
많아	-6088
말도	-6089
면접	-6090
모씨	-6091
모차	-6092
몸매	-6093
무지	-6094
물의	-6095
민씨	-6096
민아	-6097
받는	-6098
발견	-6099
버닝	-6100
벌이	-6101
베프	-6102
변명	-6103
병원	-6104
병증	-6105
보람	-6106
보컬	-6107
복학	-6108
봐서	-6109
불호	-6110
뷰티	-6111
브스	-6112
비판	-6113
사나	-6114
사모	-6115
서울	-6116
선배	-6117
선이	-6118
성년	-6119
성우	-6120
성은	-6121
성현	-6122
세끼	-6123
세이	-6124
소금	-6125
쇼호	-6126
수상	-6127
숙도	-6128
슈팅	-6129
스러	-6130
스키	-6131
스프	-6132
슬슬	-6133
승우	-6134
시는	-6135
신현	-6136
심한	-6137
아기	-6138
아의	-6139
안해	-6140
어디	-6141
어주	-6142
없지	-6143
여관	-6144
영업	-6145
영주	-6146
예고	-6147
예전	-6148
왕조	-6149
용석	-6150
우먼	-6151
웅인	-6152
워라	-6153
원은	-6154
원조	-6155
원파	-6156
웠어	-6157
위스	-6158
유창	-6159
윤경	-6160
윤발	-6161
윤이	-6162
은세	-6163
음주	-6164
의상	-6165
의혹	-6166
이견	-6167
이래	-6168
이쁜	-6169
이완	-6170
이터	-6171
인나	-6172
인영	-6173
인을	-6174
인하	-6175
일기	-6176
일단	-6177
일에	-6178
입고	-6179
있나	-6180
자매	-6181
자야	-6182
장르	-6183
재중	-6184
저런	-6185
전교	-6186
전역	-6187
전자	-6188
정음	-6189
정지	-6190
좋고	-6191
주면	-6192
주취	-6193
준히	-6194
증거	-6195
지노	-6196
짐이	-6197
집단	-6198
찍해	-6199
취급	-6200
취소	-6201
퀸덤	-6202
태지	-6203
택트	-6204
투표	-6205
티가	-6206
팔이	-6207
팔짱	-6208
포토	-6209
핑클	-6210
할것	-6211
할게	-6212
할지	-6213
핫한	-6214
했을	-6215
혁민	-6216
호석	-6217
홀히	-6218
화연	-6219
효린	-6220
휘성	-6221
힘든	-6222
-11	-6223
?'"	-6224
?[★	-6225
EDM	-6226
▁22	-6227
▁26	-6228
▁85	-6229
▁99	-6230
▁ᄇᄉ	-6231
▁ᄋᄋ	-6232
▁가질	-6233
▁가치	-6234
▁각종	-6235
▁갑질	-6236
▁강간	-6237
▁개나	-6238
▁건들	-6239
▁건물	-6240
▁골반	-6241
▁골절	-6242
▁권력	-6243
▁그닥	-6244
▁그저	-6245
▁긴밀	-6246
▁김새	-6247
▁김희	-6248
▁꿀잼	-6249
▁나랑	-6250
▁나쁘	-6251
▁난민	-6252
▁날씬	-6253
▁낫토	-6254
▁노라	-6255
▁노처	-6256
▁당한	-6257
▁대가	-6258
▁덕선	-6259
▁도망	-6260
▁독설	-6261
▁돈에	-6262
▁동네	-6263
▁드림	-6264
▁등산	-6265
▁로코	-6266
▁리더	-6267
▁마른	-6268
▁마주	-6269
▁막은	-6270
▁만능	-6271
▁맞나	-6272
▁맞선	-6273
▁맞지	-6274
▁맞춰	-6275
▁매일	-6276
▁먹을	-6277
▁먹이	-6278
▁면상	-6279
▁모자	-6280
▁모창	-6281
▁목숨	-6282
▁문가	-6283
▁민아	-6284
▁바이	-6285
▁박호	-6286
▁발부	-6287
▁배달	-6288
▁번진	-6289
▁번째	-6290
▁벌어	-6291
▁법대	-6292
▁변호	-6293
▁보디	-6294
▁본성	-6295
▁부디	-6296
▁불복	-6297
▁비유	-6298
▁삼고	-6299
▁삼촌	-6300
▁상식	-6301
▁새해	-6302
▁서른	-6303
▁선고	-6304
▁설레	-6305
▁설현	-6306
▁센스	-6307
▁소녀	-6308
▁소시	-6309
▁속에	-6310
▁손절	-6311
▁스승	-6312
▁시술	-6313
▁신기	-6314
▁신선	-6315
▁신인	-6316
▁신작	-6317
▁신화	-6318
▁싫음	-6319
▁안된	-6320
▁안됨	-6321
▁안봄	-6322
▁안은	-6323
▁안좋	-6324
▁애를	-6325
▁어른	-6326
▁어이	-6327
▁언행	-6328
▁엉망	-6329
▁에릭	-6330
▁역사	-6331
▁예민	-6332
▁오버	-6333
▁오죽	-6334
▁옹호	-6335
▁와꾸	-6336
▁외출	-6337
▁요구	-6338
▁요새	-6339
▁요청	-6340
▁우승	-6341
▁우한	-6342
▁울고	-6343
▁유감	-6344
▁유권	-6345
▁유부	-6346
▁음모	-6347
▁의경	-6348
▁의도	-6349
▁이대	-6350
▁이뿌	-6351
▁이일	-6352
▁이틀	-6353
▁인터	-6354
▁인피	-6355
▁일꾼	-6356
▁일찍	-6357
▁잃어	-6358
▁있냐	-6359
▁잊게	-6360
▁자격	-6361
▁자녀	-6362
▁자빠	-6363
▁잡아	-6364
▁잡티	-6365
▁장애	-6366
▁재능	-6367
▁재력	-6368
▁저리	-6369
▁적폐	-6370
▁전면	-6371
▁정리	-6372
▁정부	-6373
▁정진	-6374
▁정형	-6375
▁조기	-6376
▁조우	-6377
▁조짐	-6378
▁좀더	-6379
▁죄인	-6380
▁주식	-6381
▁주제	-6382
▁지키	-6383
▁진동	-6384
▁징징	-6385
▁쪽팔	-6386
▁찐따	-6387
▁찬다	-6388
▁참담	-6389
▁채무	-6390
▁처형	-6391
▁체조	-6392
▁출근	-6393
▁출발	-6394
▁취향	-6395
▁타고	-6396
▁탈출	-6397
▁태국	-6398
▁토요	-6399
▁특급	-6400
▁특징	-6401
▁편견	-6402
▁하니	-6403
▁하다	-6404
▁하던	-6405
▁하필	-6406
▁한적	-6407
▁호구	-6408
▁혹시	-6409
▁환한	-6410
▁효린	-6411
♡♡♡	-6412
겁니다	-6413
겠는데	-6414
경각심	-6415
경기장	-6416
고재근	-6417
공블리	-6418
공유의	-6419
권상우	-6420
그녀의	-6421
그레이	-6422
기상캐	-6423
김새롬	-6424
김이나	-6425
김정현	-6426
김창환	-6427
나영석	-6428
남편과	-6429
남편이	-6430
뉴뮤직	-6431
는거임	-6432
니어스	-6433
다는걸	-6434
다둥맘	-6435
다둥이	-6436
대였다	-6437
도위반	-6438
독일전	-6439
들이랑	-6440
라이머	-6441
류정한	-6442
류현경	-6443
리는데	-6444
마이걸	-6445
만화책	-6446
모친상	-6447
몬스타	-6448
몰랐을	-6449
몰웨딩	-6450
못하는	-6451
뭉쳐야	-6452
바람이	-6453
박형식	-6454
벌금형	-6455
빅히트	-6456
사랑해	-6457
상태서	-6458
성관계	-6459
성립전	-6460
성민씨	-6461
셨네요	-6462
손세이	-6463
수없는	-6464
수지와	-6465
스럽지	-6466
신혜선	-6467
싱글맘	-6468
아닌데	-6469
아오이	-6470
어놓고	-6471
어서와	-6472
엄지영	-6473
여러분	-6474
여자는	-6475
여자랑	-6476
올해는	-6477
왕조개	-6478
으세요	-6479
이니까	-6480
이대은	-6481
이던데	-6482
이랑은	-6483
이래서	-6484
이렇게	-6485
이상순	-6486
이야기	-6487
이어라	-6488
이연희	-6489
이유영	-6490
있으면	-6491
장지연	-6492
전세계	-6493
정재은	-6494
정조국	-6495
정준호	-6496
조보아	-6497
주는거	-6498
주윤발	-6499
주진모	-6500
지효와	-6501
쪽으로	-6502
첫째딸	-6503
케이스	-6504
트루디	-6505
피해자	-6506
하나요	-6507
하다가	-6508
하시는	-6509
하지도	-6510
한가인	-6511
한다는	-6512
현숙도	-6513
현실은	-6514
현실판	-6515
힐링과	-6516
,,,,	-6517
-11'	-6518
?..6	-6519
~~^^	-6520
▁"'5	-6521
▁#13	-6522
▁'28	-6523
▁1,2	-6524
▁500	-6525
▁600	-6526
▁MBC	-6527
▁The	-6528
▁가만히	-6529
▁갈리는	-6530
▁감동한	-6531
▁감우성	-6532
▁강동원	-6533
▁같던데	-6534
▁같지만	-6535
▁관심사	-6536
▁그런지	-6537
▁글로벌	-6538
▁기사에	-6539
▁기은세	-6540
▁기획사	-6541
▁김구라	-6542
▁김병옥	-6543
▁김사부	-6544
▁김성주	-6545
▁김숙에	-6546
▁김승현	-6547
▁김재근	-6548
▁깨소금	-6549
▁깨울까	-6550
▁껴안은	-6551
▁꼴보기	-6552
▁끼치는	-6553
▁나경은	-6554
▁나이에	-6555
▁남편분	-6556
▁누군데	-6557
▁눈물의	-6558
▁당하는	-6559
▁대장암	-6560
▁독보적	-6561
▁돌아온	-6562
▁드링킹	-6563
▁러브콜	-6564
▁마음을	-6565
▁만드는	-6566
▁만찢남	-6567
▁매력에	-6568
▁먹어서	-6569
▁멜로디	-6570
▁미모도	-6571
▁미용실	-6572
▁미투는	-6573
▁박수영	-6574
▁반려견	-6575
▁받았다	-6576
▁배우로	-6577
▁배우의	-6578
▁벌금형	-6579
▁보다가	-6580
▁부동산	-6581
▁부족한	-6582
▁불쌍한	-6583
▁비공개	-6584
▁비투비	-6585
▁사기꾼	-6586
▁사기설	-6587
▁상속녀	-6588
▁서울대	-6589
▁성격이	-6590
▁성범죄	-6591
▁성형설	-6592
▁세계적	-6593
▁세월호	-6594
▁소홀히	-6595
▁손태영	-6596
▁송강호	-6597
▁수준이	-6598
▁스케줄	-6599
▁실력파	-6600
▁싶었다	-6601
▁아빠의	-6602
▁아시안	-6603
▁아이가	-6604
▁악플로	-6605
▁안되고	-6606
▁안보면	-6607
▁안하면	-6608
▁않을까	-6609
▁어디로	-6610
▁어디서	-6611
▁어울려	-6612
▁에리카	-6613
▁에이미	-6614
▁여주가	-6615
▁열애를	-6616
▁예전에	-6617
▁오지네	-6618
▁올리고	-6619
▁외모가	-6620
▁욕먹을	-6621
▁우리가	-6622
▁위스키	-6623
▁유모차	-6624
▁유연석	-6625
▁윤식당	-6626
▁이모와	-6627
▁이상화	-6628
▁이선정	-6629
▁이세영	-6630
▁이찬오	-6631
▁이호석	-6632
▁일으킬	-6633
▁읽으며	-6634
▁있어도	-6635
▁있을까	-6636
▁잘못은	-6637
▁장도연	-6638
▁장동우	-6639
▁재확인	-6640
▁정용화	-6641
▁제정신	-6642
▁조만간	-6643
▁조세호	-6644
▁조용필	-6645
▁지난해	-6646
▁지라시	-6647
▁진심의	-6648
▁첫만남	-6649
▁최동훈	-6650
▁축하해	-6651
▁카메라	-6652
▁커플상	-6653
▁태어났	-6654
▁티비에	-6655
▁표현이	-6656
▁핑크의	-6657
▁하네요	-6658
▁하지말	-6659
▁한상규	-6660
▁핫반응	-6661
▁헤어질	-6662
▁호불호	-6663
▁홀렸다	-6664
▁홍수아	-6665
▁홍종현	-6666
▁황인영	-6667
▁히어로	-6668
▁힘든데	-6669
▁힘들었	-6670
가고인의	-6671
경솔하다	-6672
공소시효	-6673
공황장애	-6674
김제동도	-6675
랜뉴뮤직	-6676
매일매일	-6677
박민영이	-6678
방송작가	-6679
쇼호스트	-6680
스타톡톡	-6681
신영수의	-6682
신현준도	-6683
앞으로도	-6684
억울했다	-6685
예술활동	-6686
오마이걸	-6687
운전까지	-6688
원조요정	-6689
이채은과	-6690
제리케이	-6691
클래스가	-6692
팔짱영상	-6693
편스토랑	-6694
현역으로	-6695
확인결과	-6696
▁""12	-6697
▁3500	-6698
▁갑론을박	-6699
▁겨울나기	-6700
▁결혼부터	-6701
▁결혼해서	-6702
▁경찰조사	-6703
▁고마웠어	-6704
▁공개고백	-6705
▁나오는데	-6706
▁남자들은	-6707
▁누군지도	-6708
▁단체사진	-6709
▁당당했던	-6710
▁대왕조개	-6711
▁동갑내기	-6712
▁러블리즈	-6713
▁사과받아	-6714
▁사람에게	-6715
▁사진까지	-6716
▁사진유출	-6717
▁사회생활	-6718
▁서은광의	-6719
▁스페인어	-6720
▁싫어하는	-6721
▁아니었나	-6722
▁알베르토	-6723
▁여기까지	-6724
▁여기저기	-6725
▁여성들과	-6726
▁열애설로	-6727
▁예비신부	-6728
▁왜이렇게	-6729
▁용병으로	-6730
▁응원해요	-6731
▁이런기사	-6732
▁이별까지	-6733
▁이소라와	-6734
▁이재영의	-6735
▁이제와서	-6736
▁이탈리아	-6737
▁인피니트	-6738
▁임창정이	-6739
▁자리인데	-6740
▁장미여관	-6741
▁젝스키스	-6742
▁조작의혹	-6743
▁지금까지	-6744
▁지내는중	-6745
▁지니어스	-6746
▁진심으로	-6747
▁찾아갔다	-6748
▁첫방부터	-6749
▁털어놓은	-6750
▁필요하다	-6751
▁해주세요	-6752
▁혼자만의	-6753
기상캐스터	-6754
손세이셔널	-6755
스킨십연기	-6756
아이콘택트	-6757
연예인들의	-6758
주취상태서	-6759
청룡영화상	-6760
▁공개열애의	-6761
▁공부했지만	-6762
▁교통사고로	-6763
▁러브스토리	-6764
▁박민영에게	-6765
▁스트레스로	-6766
▁이혼성립전	-6767
▁자랑이라고	-6768
▁잠꼬대였다	-6769
▁첫만남부터	-6770
▁체조경기장	-6771
...""11	-6772
▁"“8100	-6773
▁10.1%"	-6774
▁ᄏᄏᄏᄏᄏᄏᄏᄏᄏᄏᄏᄏ	-6775
+1	-6776
-7	-6777
28	-6778
2]	-6779
3]	-6780
6%	-6781
?’	-6782
CK	-6783
CP	-6784
oo	-6785
→9	-6786
▁X	-6787
▁a	-6788
▁곳	-6789
▁덜	-6790
▁딘	-6791
▁랭	-6792
▁료	-6793
▁섹	-6794
▁션	-6795
▁십	-6796
▁쩌	-6797
▁책	-6798
▁촌	-6799
▁칭	-6800
♥"	-6801
간매	-6802
갑수	-6803
거라	-6804
걸음	-6805
격탄	-6806
고속	-6807
고통	-6808
골프	-6809
관리	-6810
관종	-6811
광란	-6812
교익	-6813
국대	-6814
규형	-6815
그녀	-6816
기부	-6817
기술	-6818
기영	-6819
길이	-6820
김남	-6821
나연	-6822
낳고	-6823
내편	-6824
냈다	-6825
녀가	-6826
년도	-6827
년의	-6828
노력	-6829
노윤	-6830
느라	-6831
니가	-6832
다나	-6833
다름	-6834
다운	-6835
단다	-6836
단열	-6837
대행	-6838
돌아	-6839
되던	-6840
두일	-6841
듣보	-6842
들고	-6843
들에	-6844
따위	-6845
라기	-6846
랄까	-6847
러시	-6848
레용	-6849
려야	-6850
리치	-6851
리턴	-6852
마냥	-6853
마녀	-6854
마사	-6855
막골	-6856
막춤	-6857
만이	-6858
매경	-6859
먹은	-6860
명길	-6861
목극	-6862
바리	-6863
반백	-6864
반증	-6865
범의	-6866
보러	-6867
보정	-6868
보지	-6869
봐요	-6870
봐주	-6871
분에	-6872
비가	-6873
비율	-6874
빅포	-6875
사위	-6876
사정	-6877
사제	-6878
사회	-6879
삭발	-6880
상선	-6881
생겼	-6882
선희	-6883
성욕	-6884
세령	-6885
세로	-6886
세얼	-6887
세에	-6888
소거	-6889
송하	-6890
수유	-6891
수익	-6892
숙아	-6893
순간	-6894
시네	-6895
시락	-6896
시작	-6897
식욕	-6898
신청	-6899
실망	-6900
싸늘	-6901
쓰고	-6902
아냐	-6903
아무	-6904
아웃	-6905
안됨	-6906
았나	-6907
앙증	-6908
액암	-6909
어러	-6910
어붙	-6911
엄청	-6912
여년	-6913
여부	-6914
여친	-6915
역대	-6916
열혈	-6917
였지	-6918
영기	-6919
예지	-6920
올리	-6921
요미	-6922
우나	-6923
우지	-6924
위안	-6925
이를	-6926
일뿐	-6927
일터	-6928
잃은	-6929
자꾸	-6930
자빈	-6931
장만	-6932
장에	-6933
장이	-6934
장제	-6935
재미	-6936
전된	-6937
정법	-6938
정비	-6939
정성	-6940
졸업	-6941
종의	-6942
주지	-6943
준이	-6944
준혁	-6945
줘요	-6946
줬다	-6947
지난	-6948
지담	-6949
지아	-6950
진창	-6951
집해	-6952
착용	-6953
착한	-6954
채널	-6955
채빚	-6956
초희	-6957
최초	-6958
추측	-6959
축제	-6960
출석	-6961
치네	-6962
카이	-6963
타기	-6964
태프	-6965
테인	-6966
특혜	-6967
패치	-6968
팬심	-6969
평화	-6970
포함	-6971
피소	-6972
하경	-6973
하구	-6974
하노	-6975
한지	-6976
한척	-6977
한해	-6978
함이	-6979
해준	-6980
해철	-6981
했고	-6982
향년	-6983
헤니	-6984
현관	-6985
형의	-6986
혜미	-6987
혹미	-6988
확장	-6989
'..	-6990
(22	-6991
.2%	-6992
ICK	-6993
▁'3	-6994
▁28	-6995
▁95	-6996
▁LA	-6997
▁ᄅᄋ	-6998
▁ᄋᄌ	-6999
▁♥'	-7000
▁가르	-7001
▁가야	-7002
▁가지	-7003
▁가희	-7004
▁강의	-7005
▁강한	-7006
▁갖춰	-7007
▁거지	-7008
▁걸을	-7009
▁결단	-7010
▁경수	-7011
▁경주	-7012
▁고양	-7013
▁과연	-7014
▁관람	-7015
▁국가	-7016
▁그립	-7017
▁금미	-7018
▁기계	-7019
▁김경	-7020
▁꿀이	-7021
▁나머	-7022
▁나옴	-7023
▁나의	-7024
▁날개	-7025
▁내한	-7026
▁너네	-7027
▁넣어	-7028
▁노엘	-7029
▁다가	-7030
▁다는	-7031
▁다이	-7032
▁단아	-7033
▁달려	-7034
▁닮나	-7035
▁당시	-7036
▁당혹	-7037
▁대만	-7038
▁도움	-7039
▁도인	-7040
▁독한	-7041
▁돈많	-7042
▁돈을	-7043
▁돌린	-7044
▁돌입	-7045
▁됐길	-7046
▁되기	-7047
▁두면	-7048
▁뒤에	-7049
▁때도	-7050
▁떴다	-7051
▁뚝뚝	-7052
▁띄워	-7053
▁랭킹	-7054
▁료타	-7055
▁만큼	-7056
▁많고	-7057
▁말자	-7058
▁맘에	-7059
▁매번	-7060
▁명상	-7061
▁무죄	-7062
▁묻어	-7063
▁묻히	-7064
▁민혁	-7065
▁민현	-7066
▁민호	-7067
▁발끈	-7068
▁밝은	-7069
▁밥상	-7070
▁백정	-7071
▁번지	-7072
▁법원	-7073
▁베컴	-7074
▁보살	-7075
▁보지	-7076
▁본선	-7077
▁부른	-7078
▁부산	-7079
▁부케	-7080
▁부활	-7081
▁분다	-7082
▁분리	-7083
▁분유	-7084
▁분이	-7085
▁불쾌	-7086
▁브라	-7087
▁비리	-7088
▁빈소	-7089
▁빌어	-7090
▁빠져	-7091
▁빠지	-7092
▁뺏을	-7093
▁뿌리	-7094
▁살다	-7095
▁살았	-7096
▁살찌	-7097
▁상담	-7098
▁상은	-7099
▁생방	-7100
▁선동	-7101
▁성룡	-7102
▁셔누	-7103
▁송해	-7104
▁쇼핑	-7105
▁수순	-7106
▁수익	-7107
▁수입	-7108
▁슈퍼	-7109
▁시댁	-7110
▁식구	-7111
▁신랑	-7112
▁심각	-7113
▁심야	-7114
▁싱글	-7115
▁아끼	-7116
▁안겨	-7117
▁않다	-7118
▁어떡	-7119
▁어떨	-7120
▁어째	-7121
▁언능	-7122
▁얼른	-7123
▁없었	-7124
▁엉엉	-7125
▁여섯	-7126
▁여우	-7127
▁여지	-7128
▁옆에	-7129
▁오글	-7130
▁왜곡	-7131
▁왜저	-7132
▁왠지	-7133
▁위암	-7134
▁유담	-7135
▁유도	-7136
▁유우	-7137
▁음성	-7138
▁음탕	-7139
▁의문	-7140
▁이도	-7141
▁이래	-7142
▁이럴	-7143
▁이발	-7144
▁이뻤	-7145
▁이완	-7146
▁이혁	-7147
▁일방	-7148
▁일침	-7149
▁입양	-7150
▁잘라	-7151
▁잘만	-7152
▁잠깐	-7153
▁저기	-7154
▁저는	-7155
▁전시	-7156
▁전치	-7157
▁정국	-7158
▁제상	-7159
▁제주	-7160
▁존경	-7161
▁좌빨	-7162
▁주변	-7163
▁주현	-7164
▁죽을	-7165
▁증세	-7166
▁진위	-7167
▁진학	-7168
▁찔러	-7169
▁착수	-7170
▁창피	-7171
▁최강	-7172
▁칭찬	-7173
▁케미	-7174
▁큰다	-7175
▁터트	-7176
▁텐션	-7177
▁특혜	-7178
▁파행	-7179
▁판사	-7180
▁팔방	-7181
▁패륜	-7182
▁팬은	-7183
▁편의	-7184
▁포커	-7185
▁하객	-7186
▁하은	-7187
▁학원	-7188
▁한가	-7189
▁한녀	-7190
▁한물	-7191
▁한집	-7192
▁한쪽	-7193
▁할수	-7194
▁했던	-7195
▁행진	-7196
▁현무	-7197
▁형사	-7198
▁혜교	-7199
▁화보	-7200
▁환불	-7201
▁황찬	-7202
▁회수	-7203
가격리	-7204
간매점	-7205
감동의	-7206
강혁민	-7207
개월째	-7208
거같다	-7209
것같다	-7210
겨났다	-7211
결혼은	-7212
고현정	-7213
과학고	-7214
관계자	-7215
광란의	-7216
구라형	-7217
그녀말	-7218
김도훈	-7219
김용건	-7220
김원희	-7221
김인권	-7222
김진아	-7223
김하늘	-7224
김흥국	-7225
나경은	-7226
노윤호	-7227
놀이기	-7228
눈에서	-7229
뉴스데	-7230
는거다	-7231
는건지	-7232
니까요	-7233
니스타	-7234
답답한	-7235
대행진	-7236
독기는	-7237
돈스파	-7238
동치미	-7239
들어서	-7240
라언니	-7241
러움증	-7242
레스트	-7243
레용팝	-7244
리는지	-7245
린사모	-7246
마리텔	-7247
마사토	-7248
명장면	-7249
박지영	-7250
박환희	-7251
반갑다	-7252
반백살	-7253
배우님	-7254
베리굿	-7255
보네요	-7256
보는데	-7257
보인다	-7258
보정이	-7259
불타는	-7260
비디오	-7261
사랑불	-7262
새벽에	-7263
서강준	-7264
세계의	-7265
소리는	-7266
소연과	-7267
소중한	-7268
송지효	-7269
수면욕	-7270
수목극	-7271
스타는	-7272
스프레	-7273
신기록	-7274
실력에	-7275
쎈리뷰	-7276
쓰레기	-7277
아무리	-7278
아쉬운	-7279
안병증	-7280
안소희	-7281
안으로	-7282
안정환	-7283
애들이	-7284
앨리스	-7285
양세종	-7286
없어요	-7287
엉덩이	-7288
연기도	-7289
연정훈	-7290
였어요	-7291
오민석	-7292
오상진	-7293
오연서	-7294
오혜원	-7295
올림픽	-7296
왔으면	-7297
우도환	-7298
우리가	-7299
워하지	-7300
유느님	-7301
윤미래	-7302
윤정수	-7303
으로서	-7304
의도적	-7305
이효리	-7306
인생이	-7307
인생캐	-7308
일본어	-7309
일텐데	-7310
자들이	-7311
자체가	-7312
자충수	-7313
잘하는	-7314
전보람	-7315
정겨운	-7316
정다은	-7317
정용화	-7318
정웅인	-7319
조윤희	-7320
조인성	-7321
지않나	-7322
짐이집	-7323
집니다	-7324
집해제	-7325
차라리	-7326
천억원	-7327
최수종	-7328
캐스팅	-7329
클라라	-7330
토리아	-7331
투데이	-7332
평생의	-7333
하고파	-7334
하니까	-7335
하다니	-7336
하더니	-7337
하던가	-7338
하지않	-7339
한거고	-7340
한예슬	-7341
해주고	-7342
했네요	-7343
홍영기	-7344
회까지	-7345
..."	-7346
>>>>	-7347
Love	-7348
▁""5	-7349
▁""6	-7350
▁For	-7351
▁ᄒᄃᄃ	-7352
▁♥..	-7353
▁가나요	-7354
▁가라고	-7355
▁가요계	-7356
▁가해자	-7357
▁갑상선	-7358
▁강해져	-7359
▁같네요	-7360
▁갚으려	-7361
▁거기서	-7362
▁검토중	-7363
▁것들이	-7364
▁결혼은	-7365
▁고백한	-7366
▁고혹미	-7367
▁공개한	-7368
▁관심이	-7369
▁귀엽다	-7370
▁귀요미	-7371
▁그렇다	-7372
▁기러기	-7373
▁기자가	-7374
▁김갑수	-7375
▁김남희	-7376
▁김민승	-7377
▁김민아	-7378
▁김민주	-7379
▁김소영	-7380
▁김재중	-7381
▁김제동	-7382
▁김치녀	-7383
▁깜찍해	-7384
▁꽃다발	-7385
▁꽃미모	-7386
▁끝나고	-7387
▁나올때	-7388
▁나왔다	-7389
▁남동생	-7390
▁남자만	-7391
▁남주혁	-7392
▁남태현	-7393
▁넘치는	-7394
▁노무현	-7395
▁닮았나	-7396
▁대담한	-7397
▁대폭발	-7398
▁대화방	-7399
▁도경수	-7400
▁도넘은	-7401
▁도시락	-7402
▁동막골	-7403
▁동지현	-7404
▁되기로	-7405
▁듀엣쇼	-7406
▁딸바보	-7407
▁뜻깊은	-7408
▁라인업	-7409
▁리턴즈	-7410
▁마시다	-7411
▁머리채	-7412
▁멤버에	-7413
▁모르게	-7414
▁모습도	-7415
▁못됐다	-7416
▁무너뜨	-7417
▁문가비	-7418
▁물타기	-7419
▁뭔상관	-7420
▁미착용	-7421
▁박규리	-7422
▁박호산	-7423
▁반드시	-7424
▁방송에	-7425
▁벌려고	-7426
▁보여준	-7427
▁봐야지	-7428
▁부러우	-7429
▁불러온	-7430
▁블락비	-7431
▁빈지노	-7432
▁빠르다	-7433
▁사과와	-7434
▁사진은	-7435
▁사채빚	-7436
▁살았던	-7437
▁삼매경	-7438
▁삼윤이	-7439
▁생각도	-7440
▁서로의	-7441
▁서장훈	-7442
▁서태지	-7443
▁선물에	-7444
▁설이가	-7445
▁성유리	-7446
▁소름돋	-7447
▁송지아	-7448
▁수상한	-7449
▁순둥이	-7450
▁시간이	-7451
▁아무도	-7452
▁아파서	-7453
▁악플다	-7454
▁않는다	-7455
▁양준혁	-7456
▁어그로	-7457
▁언제쯤	-7458
▁얼굴에	-7459
▁엄마도	-7460
▁연기로	-7461
▁연애만	-7462
▁연우진	-7463
▁열대세	-7464
▁열등감	-7465
▁영원히	-7466
▁예능은	-7467
▁예뻤나	-7468
▁예쁠까	-7469
▁예수님	-7470
▁오영주	-7471
▁오초희	-7472
▁오프닝	-7473
▁울기도	-7474
▁위자료	-7475
▁유산슬	-7476
▁유인나	-7477
▁육아법	-7478
▁윤서인	-7479
▁음소거	-7480
▁음이탈	-7481
▁이두일	-7482
▁이번에	-7483
▁이별에	-7484
▁이세은	-7485
▁이예림	-7486
▁이용대	-7487
▁이이경	-7488
▁이정현	-7489
▁이준기	-7490
▁이청아	-7491
▁이혼이	-7492
▁인류애	-7493
▁인정이	-7494
▁인정한	-7495
▁인증샷	-7496
▁인터넷	-7497
▁일어난	-7498
▁잘보고	-7499
▁잘사는	-7500
▁잘할게	-7501
▁잡아라	-7502
▁장난기	-7503
▁재미가	-7504
▁재밌음	-7505
▁전설이	-7506
▁정유미	-7507
▁정진운	-7508
▁제자리	-7509
▁조우리	-7510
▁조우종	-7511
▁죄송한	-7512
▁즐거운	-7513
▁지금도	-7514
▁지아와	-7515
▁직격탄	-7516
▁진지해	-7517
▁짜증나	-7518
▁차인하	-7519
▁채웠다	-7520
▁천호진	-7521
▁초고속	-7522
▁최명길	-7523
▁최민환	-7524
▁출연료	-7525
▁타지도	-7526
▁판박이	-7527
▁폭행설	-7528
▁표현일	-7529
▁피자집	-7530
▁하는건	-7531
▁하현관	-7532
▁한상진	-7533
▁한수민	-7534
▁한혜연	-7535
▁행사비	-7536
▁혈액암	-7537
▁호랑이	-7538
▁호전된	-7539
▁홍선영	-7540
▁확진자	-7541
▁후배들	-7542
▁흥행작	-7543
▁힘내라	-7544
▁힘들게	-7545
국민청원	-7546
그들만의	-7547
김희선과	-7548
놀이기구	-7549
대체불가	-7550
데이트에	-7551
만원으로	-7552
미소잃은	-7553
반응싸늘	-7554
방송여부	-7555
법적대응	-7556
사기결혼	-7557
사랑하면	-7558
서연우가	-7559
성욕까지	-7560
세얼간이	-7561
소속사서	-7562
손예진과	-7563
송혜교인	-7564
스코리아	-7565
신비주의	-7566
아나운서	-7567
아빠라서	-7568
앙증맞고	-7569
야간매점	-7570
야마사토	-7571
엔터테인	-7572
연인으로	-7573
열혈사제	-7574
예측불가	-7575
육아하는	-7576
음주운전	-7577
의료사고	-7578
자필사과	-7579
장르확장	-7580
장만월로	-7581
집행유예	-7582
평화로운	-7583
표예진에	-7584
해피엔딩	-7585
황금정원	-7586
...”,	-7587
?????	-7588
→1000	-7589
▁""30	-7590
▁2019	-7591
▁PICK	-7592
▁snow	-7593
▁가족사진	-7594
▁감사인사	-7595
▁게시글에	-7596
▁결혼생활	-7597
▁경주에서	-7598
▁고등학생	-7599
▁고르라면	-7600
▁골목식당	-7601
▁공개해야	-7602
▁구하라에	-7603
▁구혜선이	-7604
▁기억할게	-7605
▁김혜나는	-7606
▁김흥국의	-7607
▁노홍철도	-7608
▁덮으려고	-7609
▁따라한다	-7610
▁뛰어넘은	-7611
▁라이머와	-7612
▁마녀사냥	-7613
▁모르겠네	-7614
▁모르겠음	-7615
▁모유수유	-7616
▁못보겠다	-7617
▁미스터리	-7618
▁미친사람	-7619
▁민폐였다	-7620
▁반성하며	-7621
▁백종원급	-7622
▁보고싶다	-7623
▁부끄러운	-7624
▁부녀사이	-7625
▁비키니로	-7626
▁사랑하고	-7627
▁사진발로	-7628
▁살인사건	-7629
▁성공했다	-7630
▁소속사가	-7631
▁소집해제	-7632
▁손잡았다	-7633
▁숙지하고	-7634
▁스몰웨딩	-7635
▁스포와의	-7636
▁아니잖아	-7637
▁안재현이	-7638
▁어느정도	-7639
▁어떡하나	-7640
▁어린시절	-7641
▁언제까지	-7642
▁없어졌다	-7643
▁여배우들	-7644
▁연기자의	-7645
▁영상까지	-7646
▁예능인상	-7647
▁예비부부	-7648
▁예측불가	-7649
▁완벽했던	-7650
▁유노윤호	-7651
▁유재석의	-7652
▁음악방송	-7653
▁응원한다	-7654
▁의혹에도	-7655
▁이미지는	-7656
▁이상하게	-7657
▁이태임의	-7658
▁자가격리	-7659
▁장소연과	-7660
▁정도였어	-7661
▁조기졸업	-7662
▁주식부터	-7663
▁지인들과	-7664
▁지짐이집	-7665
▁차태현이	-7666
▁체포되던	-7667
▁크레용팝	-7668
▁크리스탈	-7669
▁팔방미인	-7670
▁팬들에게	-7671
▁하지말고	-7672
▁학교폭력	-7673
▁한심하다	-7674
▁한의사와	-7675
▁한집살이	-7676
▁해체위기	-7677
▁활동한다	-7678
가인이어라	-7679
건축학개론	-7680
뉴스데스크	-7681
돈스파이크	-7682
몬스타엑스	-7683
보고싶었어	-7684
빅포레스트	-7685
예비신랑은	-7686
페미니스트	-7687
!!!!!!	-7688
!""...	-7689
▁11.2%	-7690
▁가라고해서	-7691
▁감우성에게	-7692
▁기억할게요	-7693
▁대장암으로	-7694
▁도시락집에	-7695
▁동막골소녀	-7696
▁못했었는데	-7697
▁아시안게임	-7698
▁어지러움증	-7699
▁연예인들은	-7700
▁예고만으로	-7701
▁위스키까지	-7702
▁의연해지는	-7703
▁제자리걸음	-7704
▁주인공으로	-7705
▁평창올림픽	-7706
▁포커페이스	-7707
엔터테인먼트	-7708
하나뿐인내편	-7709
!""...'	-7710
▁마이크로닷의	-7711
▁새해데이트에	-7712
▁시청자들에게	-7713
▁음주운전사고	-7714
.,	-7715
.5	-7716
//	-7717
16	-7718
5'	-7719
88	-7720
90	-7721
FM	-7722
JK	-7723
KB	-7724
MC	-7725
NC	-7726
][	-7727
bc	-7728
bo	-7729
ll	-7730
ne	-7731
·8	-7732
·‘	-7733
▁-	-7734
▁C	-7735
▁l	-7736
▁t	-7737
▁ᆞ	-7738
▁母	-7739
▁견	-7740
▁끄	-7741
▁늦	-7742
▁든	-7743
▁몽	-7744
▁웨	-7745
▁획	-7746
가은	-7747
각시	-7748
간녀	-7749
간담	-7750
간지	-7751
간질	-7752
간히	-7753
감상	-7754
감이	-7755
강남	-7756
강태	-7757
같고	-7758
거래	-7759
검승	-7760
겁고	-7761
겁다	-7762
격히	-7763
경구	-7764
경아	-7765
골든	-7766
과는	-7767
과수	-7768
교진	-7769
구먼	-7770
국가	-7771
권혁	-7772
그랬	-7773
그리	-7774
근현	-7775
기성	-7776
길리	-7777
김종	-7778
김현	-7779
께요	-7780
꽃신	-7781
나랑	-7782
나방	-7783
나왔	-7784
날다	-7785
남연	-7786
남친	-7787
내용	-7788
냐들	-7789
너노	-7790
네이	-7791
놔라	-7792
느냐	-7793
니나	-7794
님은	-7795
달콤	-7796
답게	-7797
대만	-7798
대문	-7799
대질	-7800
도끼	-7801
도라	-7802
도안	-7803
돈은	-7804
동료	-7805
두절	-7806
둔촌	-7807
둘째	-7808
들호	-7809
딩크	-7810
때문	-7811
란한	-7812
래도	-7813
러코	-7814
런트	-7815
론이	-7816
롭게	-7817
루엔	-7818
루엣	-7819
마나	-7820
막식	-7821
만월	-7822
만표	-7823
많다	-7824
맞이	-7825
먹먹	-7826
모양	-7827
몸캠	-7828
물여	-7829
뭐야	-7830
미디	-7831
미초	-7832
민들	-7833
민폐	-7834
바닥	-7835
밖의	-7836
반일	-7837
방에	-7838
배가	-7839
백기	-7840
백도	-7841
백의	-7842
벗방	-7843
별세	-7844
본승	-7845
분만	-7846
분석	-7847
불량	-7848
불륜	-7849
불안	-7850
불패	-7851
비드	-7852
쁘다	-7853
사유	-7854
산의	-7855
살에	-7856
살해	-7857
삼촌	-7858
상권	-7859
상욱	-7860
상파	-7861
새댁	-7862
생김	-7863
샤워	-7864
서른	-7865
서아	-7866
서워	-7867
서은	-7868
서형	-7869
석규	-7870
선언	-7871
섯에	-7872
성과	-7873
성도	-7874
성화	-7875
세빌	-7876
수를	-7877
순택	-7878
스병	-7879
스폰	-7880
승민	-7881
승호	-7882
시만	-7883
시양	-7884
시윤	-7885
신거	-7886
신분	-7887
실명	-7888
실제	-7889
싫어	-7890
심이	-7891
싱어	-7892
써라	-7893
아별	-7894
아시	-7895
안되	-7896
안에	-7897
알바	-7898
애미	-7899
양육	-7900
어쩌	-7901
언젠	-7902
었고	-7903
에다	-7904
여우	-7905
여유	-7906
연극	-7907
연재	-7908
였네	-7909
영거	-7910
예담	-7911
예은	-7912
오직	-7913
오톡	-7914
온통	-7915
올라	-7916
옷에	-7917
와와	-7918
운거	-7919
워프	-7920
유건	-7921
유의	-7922
으른	-7923
의지	-7924
이은	-7925
이주	-7926
이호	-7927
이회	-7928
인것	-7929
인도	-7930
인에	-7931
인플	-7932
일로	-7933
일반	-7934
입덕	-7935
입영	-7936
자신	-7937
작에	-7938
잡이	-7939
장재	-7940
장한	-7941
재이	-7942
재익	-7943
저러	-7944
전이	-7945
전화	-7946
절한	-7947
정민	-7948
젝트	-7949
조명	-7950
준은	-7951
중도	-7952
중심	-7953
지들	-7954
지른	-7955
지부	-7956
지옥	-7957
직구	-7958
직원	-7959
진우	-7960
질투	-7961
짐한	-7962
짜증	-7963
째로	-7964
쩌네	-7965
찬미	-7966
채무	-7967
책감	-7968
처벌	-7969
천화	-7970
쳐먹	-7971
초밥	-7972
최강	-7973
추가	-7974
추리	-7975
측근	-7976
치타	-7977
카레	-7978
케빈	-7979
크서	-7980
키맨	-7981
키우	-7982
키지	-7983
킬까	-7984
탄탄	-7985
톡투	-7986
트남	-7987
트너	-7988
특급	-7989
티비	-7990
티크	-7991
파경	-7992
파동	-7993
판결	-7994
품화	-7995
풍에	-7996
하가	-7997
할거	-7998
핫샷	-7999
해외	-8000
했지	-8001
행렬	-8002
혀서	-8003
협박	-8004
혜정	-8005
호법	-8006
홍글	-8007
확정	-8008
활짝	-8009
희라	-8010
""-	-8011
.6%	-8012
.7%	-8013
SNL	-8014
YMC	-8015
]'3	-8016
]'5	-8017
box	-8018
ᄃᄃᄃ	-8019
’·‘	-8020
→52	-8021
▁('	-8022
▁42	-8023
▁44	-8024
▁BJ	-8025
▁LJ	-8026
▁[‘	-8027
▁“8	-8028
▁간부	-8029
▁간접	-8030
▁강력	-8031
▁개명	-8032
▁개뿔	-8033
▁거울	-8034
▁거품	-8035
▁게임	-8036
▁겨우	-8037
▁경력	-8038
▁경제	-8039
▁계의	-8040
▁고단	-8041
▁고사	-8042
▁고정	-8043
▁곤혹	-8044
▁공산	-8045
▁공익	-8046
▁공통	-8047
▁과정	-8048
▁구라	-8049
▁군단	-8050
▁군살	-8051
▁그림	-8052
▁그후	-8053
▁극과	-8054
▁금발	-8055
▁금방	-8056
▁금손	-8057
▁김보	-8058
▁김연	-8059
▁깊고	-8060
▁까고	-8061
▁까내	-8062
▁깜놀	-8063
▁꼽은	-8064
▁끝은	-8065
▁나가	-8066
▁나서	-8067
▁남은	-8068
▁낳고	-8069
▁낼까	-8070
▁넘겨	-8071
▁늘어	-8072
▁늙어	-8073
▁다양	-8074
▁단일	-8075
▁덕후	-8076
▁도배	-8077
▁도의	-8078
▁독박	-8079
▁독살	-8080
▁돌려	-8081
▁돌리	-8082
▁돌림	-8083
▁되던	-8084
▁되려	-8085
▁될수	-8086
▁듣고	-8087
▁들을	-8088
▁등등	-8089
▁라거	-8090
▁라면	-8091
▁리원	-8092
▁마땅	-8093
▁마스	-8094
▁마찬	-8095
▁만발	-8096
▁만취	-8097
▁먹는	-8098
▁모닝	-8099
▁모름	-8100
▁무관	-8101
▁무식	-8102
▁문죄	-8103
▁문화	-8104
▁물욕	-8105
▁미코	-8106
▁믿음	-8107
▁반만	-8108
▁반찬	-8109
▁받은	-8110
▁발산	-8111
▁배역	-8112
▁버즈	-8113
▁벌칙	-8114
▁베네	-8115
▁보인	-8116
▁복근	-8117
▁본적	-8118
▁부각	-8119
▁부고	-8120
▁부르	-8121
▁부분	-8122
▁부자	-8123
▁부터	-8124
▁분량	-8125
▁비하	-8126
▁빙의	-8127
▁빠는	-8128
▁빠순	-8129
▁뻔뻔	-8130
▁사극	-8131
▁사돈	-8132
▁사적	-8133
▁사전	-8134
▁사주	-8135
▁사형	-8136
▁산모	-8137
▁삶도	-8138
▁상위	-8139
▁상자	-8140
▁상주	-8141
▁새벽	-8142
▁생성	-8143
▁생존	-8144
▁성상	-8145
▁성찰	-8146
▁세무	-8147
▁소년	-8148
▁숨진	-8149
▁슬슬	-8150
▁시대	-8151
▁시체	-8152
▁신종	-8153
▁실패	-8154
▁싸우	-8155
▁써야	-8156
▁썼다	-8157
▁쓰는	-8158
▁아리	-8159
▁아지	-8160
▁안볼	-8161
▁않을	-8162
▁않음	-8163
▁알지	-8164
▁앞둔	-8165
▁앞에	-8166
▁애써	-8167
▁애잔	-8168
▁야할	-8169
▁얻어	-8170
▁엄지	-8171
▁없애	-8172
▁에이	-8173
▁여름	-8174
▁여장	-8175
▁연우	-8176
▁열심	-8177
▁열일	-8178
▁염색	-8179
▁예감	-8180
▁예상	-8181
▁온갖	-8182
▁울림	-8183
▁울산	-8184
▁웃고	-8185
▁워낙	-8186
▁원만	-8187
▁월요	-8188
▁위독	-8189
▁위로	-8190
▁위험	-8191
▁유독	-8192
▁유력	-8193
▁유일	-8194
▁윤건	-8195
▁은혁	-8196
▁의리	-8197
▁이것	-8198
▁이길	-8199
▁인상	-8200
▁일과	-8201
▁일정	-8202
▁입국	-8203
▁입는	-8204
▁잊혀	-8205
▁자매	-8206
▁작년	-8207
▁장르	-8208
▁장사	-8209
▁장악	-8210
▁저걸	-8211
▁저번	-8212
▁전처	-8213
▁접수	-8214
▁정샘	-8215
▁좋지	-8216
▁죄가	-8217
▁주고	-8218
▁죽어	-8219
▁죽이	-8220
▁중계	-8221
▁중고	-8222
▁지루	-8223
▁지역	-8224
▁지우	-8225
▁지은	-8226
▁지지	-8227
▁짓을	-8228
▁쩐다	-8229
▁찍고	-8230
▁차이	-8231
▁참나	-8232
▁채연	-8233
▁챙긴	-8234
▁처분	-8235
▁천사	-8236
▁초반	-8237
▁총선	-8238
▁최다	-8239
▁최우	-8240
▁친딸	-8241
▁침대	-8242
▁카카	-8243
▁코피	-8244
▁탄핵	-8245
▁탓만	-8246
▁택연	-8247
▁택한	-8248
▁터키	-8249
▁텐가	-8250
▁토로	-8251
▁통튼	-8252
▁팬이	-8253
▁편성	-8254
▁포스	-8255
▁폭탄	-8256
▁하오	-8257
▁하와	-8258
▁하일	-8259
▁한데	-8260
▁해주	-8261
▁행적	-8262
▁허수	-8263
▁협의	-8264
▁홍어	-8265
▁홍콩	-8266
▁황실	-8267
▁회복	-8268
▁획득	-8269
▁휘둘	-8270
♥)"	-8271
가수로	-8272
가요베	-8273
감상실	-8274
강경한	-8275
강경헌	-8276
강태오	-8277
개그맨	-8278
거같음	-8279
거리가	-8280
거리냐	-8281
검승부	-8282
것이다	-8283
결정적	-8284
고주원	-8285
권혁수	-8286
기까지	-8287
기술자	-8288
김남길	-8289
김사부	-8290
김선아	-8291
김성재	-8292
김세정	-8293
김시후	-8294
김재영	-8295
김창숙	-8296
김학래	-8297
김현우	-8298
김현진	-8299
꾸준히	-8300
끝없는	-8301
나오네	-8302
나이에	-8303
날보러	-8304
남연우	-8305
남주혁	-8306
내운명	-8307
너노들	-8308
네이션	-8309
녀석들	-8310
녹두꽃	-8311
다음에	-8312
달라진	-8313
대표님	-8314
둔촌동	-8315
들이네	-8316
딸바보	-8317
라나다	-8318
래퍼와	-8319
레이브	-8320
루엔자	-8321
류준열	-8322
리는게	-8323
리스틴	-8324
리자벳	-8325
마녀전	-8326
메이트	-8327
문단열	-8328
미숙아	-8329
미용실	-8330
미초바	-8331
민폐네	-8332
박서원	-8333
박성훈	-8334
박신양	-8335
박정수	-8336
배우로	-8337
배윤경	-8338
백반증	-8339
변수미	-8340
병원의	-8341
보여요	-8342
보이는	-8343
분노에	-8344
블링이	-8345
빠져가	-8346
사이다	-8347
살차이	-8348
상처가	-8349
서예지	-8350
서은수	-8351
선생님	-8352
설경구	-8353
세상을	-8354
소라게	-8355
소이현	-8356
송지욱	-8357
수영복	-8358
순백의	-8359
스럽고	-8360
스태프	-8361
슬린다	-8362
습니까	-8363
신마비	-8364
신민아	-8365
신선함	-8366
신성록	-8367
아사연	-8368
아올린	-8369
악플이	-8370
았다고	-8371
양동근	-8372
양세형	-8373
양육비	-8374
어가는	-8375
없어서	-8376
없으면	-8377
에스더	-8378
역대급	-8379
영수증	-8380
오빠가	-8381
오의식	-8382
오피스	-8383
용준형	-8384
운전자	-8385
위자료	-8386
유리와	-8387
유승민	-8388
유인석	-8389
유지에	-8390
육아로	-8391
육중완	-8392
으니깐	-8393
이대휘	-8394
이사강	-8395
이상한	-8396
이선아	-8397
이세영	-8398
이솜의	-8399
이프릴	-8400
이회창	-8401
이휘재	-8402
인생작	-8403
임세령	-8404
있는거	-8405
있어서	-8406
자녀들	-8407
잠시만	-8408
장동윤	-8409
장제원	-8410
적당히	-8411
전문제	-8412
전선혜	-8413
전소민	-8414
전시즌	-8415
정을영	-8416
정하고	-8417
정해인	-8418
제주도	-8419
조들호	-8420
조선은	-8421
종현에	-8422
주니어	-8423
주상욱	-8424
즈니스	-8425
지니스	-8426
지만갑	-8427
진심에	-8428
집부터	-8429
차별화	-8430
차이로	-8431
차재이	-8432
차화연	-8433
총경급	-8434
최무성	-8435
최민환	-8436
최예슬	-8437
추측만	-8438
치와와	-8439
친구의	-8440
톡투유	-8441
티스트	-8442
판도라	-8443
하기는	-8444
하니깐	-8445
하라고	-8446
하현우	-8447
한거임	-8448
한것도	-8449
한고은	-8450
할텐데	-8451
해보임	-8452
해야죠	-8453
했다는	-8454
했을까	-8455
행복길	-8456
환희와	-8457
황지만	-8458
10.5	-8459
]""6	-8460
”···	-8461
▁!!!	-8462
▁182	-8463
▁25%	-8464
▁AKB	-8465
▁BTS	-8466
▁FNC	-8467
▁JYP	-8468
▁가슴에	-8469
▁가족들	-8470
▁가진적	-8471
▁각자의	-8472
▁감량한	-8473
▁강렬한	-8474
▁개노잼	-8475
▁개막식	-8476
▁결단에	-8477
▁결혼도	-8478
▁결혼을	-8479
▁고소장	-8480
▁공감한	-8481
▁공백기	-8482
▁구본승	-8483
▁궁전의	-8484
▁귀여운	-8485
▁그러냐	-8486
▁그러면	-8487
▁급격히	-8488
▁기대해	-8489
▁기사화	-8490
▁길거리	-8491
▁김경진	-8492
▁김민경	-8493
▁김민희	-8494
▁김보라	-8495
▁김서형	-8496
▁김성은	-8497
▁김수민	-8498
▁김신영	-8499
▁김요한	-8500
▁김우빈	-8501
▁김지철	-8502
▁김학래	-8503
▁김혜준	-8504
▁꼬라지	-8505
▁끝없는	-8506
▁나란히	-8507
▁나은이	-8508
▁남규리	-8509
▁남다름	-8510
▁남친과	-8511
▁낸시랭	-8512
▁네가지	-8513
▁노래가	-8514
▁노사연	-8515
▁논의의	-8516
▁누구지	-8517
▁눈물이	-8518
▁능력자	-8519
▁다할것	-8520
▁닮은꼴	-8521
▁대응할	-8522
▁대표의	-8523
▁대학원	-8524
▁덕분에	-8525
▁데이터	-8526
▁돌직구	-8527
▁돌파는	-8528
▁동대문	-8529
▁되었나	-8530
▁떠나며	-8531
▁뜨거운	-8532
▁뜻밖의	-8533
▁라이브	-8534
▁롤러코	-8535
▁루머에	-8536
▁릴레이	-8537
▁만나길	-8538
▁만나는	-8539
▁망가지	-8540
▁멋있다	-8541
▁멋져요	-8542
▁모유비	-8543
▁무면허	-8544
▁무책임	-8545
▁문제야	-8546
▁묻어둘	-8547
▁박근혜	-8548
▁박민정	-8549
▁박정민	-8550
▁밝았던	-8551
▁배기성	-8552
▁베트남	-8553
▁변호인	-8554
▁보기좋	-8555
▁봄맞이	-8556
▁부부의	-8557
▁부티크	-8558
▁불나방	-8559
▁불편해	-8560
▁비밀의	-8561
▁사랑꾼	-8562
▁사실에	-8563
▁사진을	-8564
▁살빠져	-8565
▁상간녀	-8566
▁새멤버	-8567
▁생겼네	-8568
▁생에는	-8569
▁서효림	-8570
▁선미가	-8571
▁성매수	-8572
▁소길리	-8573
▁소년은	-8574
▁소리가	-8575
▁속에서	-8576
▁손동작	-8577
▁송지효	-8578
▁수사는	-8579
▁수익금	-8580
▁스물여	-8581
▁스위스	-8582
▁시국에	-8583
▁신동욱	-8584
▁실루엣	-8585
▁아까워	-8586
▁아닐까	-8587
▁아쉬움	-8588
▁악마의	-8589
▁안간다	-8590
▁안궁금	-8591
▁안하는	-8592
▁알아요	-8593
▁야구장	-8594
▁어느새	-8595
▁어디가	-8596
▁어이가	-8597
▁어쩌고	-8598
▁억지로	-8599
▁엄하게	-8600
▁없어져	-8601
▁없으면	-8602
▁여론도	-8603
▁여리고	-8604
▁여자로	-8605
▁여자만	-8606
▁여전해	-8607
▁역겨워	-8608
▁연세대	-8609
▁연정훈	-8610
▁열렸다	-8611
▁예능인	-8612
▁예쁘네	-8613
▁오민석	-8614
▁오순택	-8615
▁외치는	-8616
▁욕하고	-8617
▁우효광	-8618
▁운명적	-8619
▁울었나	-8620
▁위크서	-8621
▁위해서	-8622
▁유시춘	-8623
▁유출로	-8624
▁육지담	-8625
▁윤세아	-8626
▁윤아는	-8627
▁윤종신	-8628
▁음악적	-8629
▁음탕녀	-8630
▁응원에	-8631
▁의미는	-8632
▁이만기	-8633
▁이발사	-8634
▁이상해	-8635
▁이순재	-8636
▁이신영	-8637
▁이어져	-8638
▁이여자	-8639
▁이유리	-8640
▁이은희	-8641
▁이일화	-8642
▁이진이	-8643
▁이혼한	-8644
▁이휘재	-8645
▁인생의	-8646
▁인지도	-8647
▁일인가	-8648
▁있겠지	-8649
▁있는지	-8650
▁있어야	-8651
▁자태는	-8652
▁잘나가	-8653
▁잘못이	-8654
▁잘해서	-8655
▁장동윤	-8656
▁장만월	-8657
▁재미도	-8658
▁재밌어	-8659
▁재정비	-8660
▁재조명	-8661
▁잼잼이	-8662
▁전시회	-8663
▁전지현	-8664
▁전환설	-8665
▁제대에	-8666
▁조근현	-8667
▁조병규	-8668
▁조여정	-8669
▁조작된	-8670
▁조정석	-8671
▁족하다	-8672
▁좋으면	-8673
▁주홍글	-8674
▁죽음을	-8675
▁죽음의	-8676
▁지금의	-8677
▁지상파	-8678
▁지킬까	-8679
▁진상위	-8680
▁진해진	-8681
▁질투심	-8682
▁짧아도	-8683
▁차주혁	-8684
▁챌린지	-8685
▁최악의	-8686
▁최측근	-8687
▁출산후	-8688
▁출연에	-8689
▁치명적	-8690
▁친구가	-8691
▁커플링	-8692
▁통째로	-8693
▁투성이	-8694
▁팬미팅	-8695
▁팬클럽	-8696
▁평범한	-8697
▁폭로글	-8698
▁푸짐한	-8699
▁프로듀	-8700
▁피자에	-8701
▁하고싶	-8702
▁하늘이	-8703
▁하다니	-8704
▁하시길	-8705
▁한남충	-8706
▁한번도	-8707
▁한석규	-8708
▁한정수	-8709
▁할게요	-8710
▁할말이	-8711
▁함부로	-8712
▁항소심	-8713
▁행복은	-8714
▁허안나	-8715
▁헤어져	-8716
▁현빈의	-8717
▁호르몬	-8718
▁활성화	-8719
▁황찬호	-8720
▁후회돼	-8721
감동적인	-8722
건강하게	-8723
귀염둥이	-8724
그럼에도	-8725
기자간담	-8726
김용준도	-8727
년사업가	-8728
누구보다	-8729
데이비드	-8730
도박으로	-8731
드라마는	-8732
디네이션	-8733
디스패치	-8734
마녀사냥	-8735
마이웨이	-8736
미숙아로	-8737
미안하고	-8738
미야와키	-8739
미용실판	-8740
박보영과	-8741
보니허니	-8742
브레이브	-8743
빅토리아	-8744
사랑한다	-8745
살아남은	-8746
성격차이	-8747
세빌리아	-8748
송종국과	-8749
슈퍼맨이	-8750
스트레스	-8751
아닌가요	-8752
아시아의	-8753
애들생각	-8754
에이핑크	-8755
엘리자벳	-8756
연락두절	-8757
연예활동	-8758
오랜시간	-8759
육중완과	-8760
으른연애	-8761
있습니다	-8762
전문포함	-8763
전쟁가고	-8764
정경호는	-8765
젝스키스	-8766
진검승부	-8767
차병원의	-8768
채무관계	-8769
최강창민	-8770
카레덮밥	-8771
카이캐슬	-8772
클라라가	-8773
타임워프	-8774
토니안과	-8775
특혜라니	-8776
팩트체크	-8777
프리스틴	-8778
하는거야	-8779
할리우드	-8780
합의하여	-8781
했습니다	-8782
허위사실	-8783
...12	-8784
12.7%	-8785
]""23	-8786
↑..""	-8787
▁1988	-8788
▁2900	-8789
▁가정폭력	-8790
▁감정이입	-8791
▁감탄시킨	-8792
▁갑상선암	-8793
▁강력조치	-8794
▁강렬했던	-8795
▁강제추행	-8796
▁건드리면	-8797
▁걸크러시	-8798
▁결별까지	-8799
▁결혼하면	-8800
▁결혼한줄	-8801
▁계속된다	-8802
▁계약해지	-8803
▁공격에도	-8804
▁공식적인	-8805
▁공황장애	-8806
▁구하라가	-8807
▁그라나다	-8808
▁그만해라	-8809
▁기사거리	-8810
▁김보라는	-8811
▁김유지에	-8812
▁끝났지만	-8813
▁나쁜사람	-8814
▁나타나면	-8815
▁남자였어	-8816
▁농구선수	-8817
▁누가봐도	-8818
▁다니는게	-8819
▁단일메뉴	-8820
▁도인범의	-8821
▁돌발행동	-8822
▁동거생활	-8823
▁동방불패	-8824
▁뜬금없는	-8825
▁마음고생	-8826
▁마음으로	-8827
▁마주쳤다	-8828
▁말아달라	-8829
▁멤버들도	-8830
▁모르지만	-8831
▁모습으로	-8832
▁미야와키	-8833
▁바꿔치기	-8834
▁바지사장	-8835
▁받아들이	-8836
▁발견했다	-8837
▁밝혀진다	-8838
▁밤샘조사	-8839
▁부러우면	-8840
▁분노했다	-8841
▁분리하는	-8842
▁불구하고	-8843
▁비즈니스	-8844
▁사랑해요	-8845
▁사진보니	-8846
▁사촌형과	-8847
▁살겠다고	-8848
▁생각나네	-8849
▁성형외과	-8850
▁세무조사	-8851
▁소녀시대	-8852
▁소유진과	-8853
▁쇼케이스	-8854
▁시어머니	-8855
▁쓰레기들	-8856
▁아무것도	-8857
▁아버지와	-8858
▁아이들의	-8859
▁악플러들	-8860
▁안무서워	-8861
▁안전문제	-8862
▁앞으로도	-8863
▁애도물결	-8864
▁애정전선	-8865
▁언제부터	-8866
▁얼굴인데	-8867
▁엉망진창	-8868
▁에이프릴	-8869
▁여러분께	-8870
▁여자친구	-8871
▁여자한테	-8872
▁연기신청	-8873
▁연애예능	-8874
▁연예계로	-8875
▁연예인은	-8876
▁예능까지	-8877
▁예능에서	-8878
▁오영주와	-8879
▁왜곡됐다	-8880
▁운동하는	-8881
▁이기적인	-8882
▁이름으로	-8883
▁있었는데	-8884
▁있었으면	-8885
▁잘나가는	-8886
▁잘생겼다	-8887
▁잠드소서	-8888
▁잠드시길	-8889
▁장윤정의	-8890
▁정상방송	-8891
▁정상회담	-8892
▁정샘물의	-8893
▁정형외과	-8894
▁제보하려	-8895
▁제주도서	-8896
▁조문행렬	-8897
▁지드래곤	-8898
▁집착하는	-8899
▁집행유예	-8900
▁천만다행	-8901
▁천호진이	-8902
▁최진리만	-8903
▁최환희와	-8904
▁축구사랑	-8905
▁카카오톡	-8906
▁컴백확정	-8907
▁태어났던	-8908
▁토요예능	-8909
▁폐지해라	-8910
▁프로젝트	-8911
▁하나경이	-8912
▁하는것도	-8913
▁한국남자	-8914
▁한예슬의	-8915
▁형사처벌	-8916
가요베스트	-8917
고통스럽지	-8918
김태호까지	-8919
날보러와요	-8920
너는내운명	-8921
비디오스타	-8922
서른이지만	-8923
송혜교까지	-8924
안녕하세요	-8925
인플루엔자	-8926
치와와커플	-8927
특별출연의	-8928
하지마세요	-8929
?'...'	-8930
?”...‘	-8931
▁'10.5	-8932
▁.....	-8933
▁나오셨어요	-8934
▁데이트처럼	-8935
▁돌아오겠다	-8936
▁드라마에서	-8937
▁따라한다해	-8938
▁떠나보내는	-8939
▁롤러코스트	-8940
▁만나기까지	-8941
▁무너뜨렸다	-8942
▁사업인생이	-8943
▁생각했는데	-8944
▁성격차이로	-8945
▁성찰하겠다	-8946
▁손가락으로	-8947
▁스물여섯에	-8948
▁엄마니까요	-8949
▁여성래퍼와	-8950
▁여자연예인	-8951
▁연기기술자	-8952
▁원더걸스는	-8953
▁원테이블에	-8954
▁음악감상실	-8955
▁이슈메이커	-8956
▁좋아하는데	-8957
▁참고인조사	-8958
▁축하해줬다	-8959
▁특별출연의	-8960
▁해프닝으로	-8961
브레이브걸스	-8962
▁모창전쟁가고	-8963
기자간담회까지	-8964
스윙엔터테인먼트	-8965
'...12.7%	-8966
▁'10.5%'"	-8967
▁아이스버킷챌린지	-8968
▁ᄏᄏᄏᄏᄏᄏᄏᄏᄏᄏᄏ	-8969
ᄏᄏᄏᄏᄏᄏᄏᄏᄏᄏᄏᄏᄏᄏᄏᄏ	-8970
!"	-8971
.♥	-8972
15	-8973
27	-8974
2?	-8975
55	-8976
6'	-8977
66	-8978
6]	-8979
70	-8980
EW	-8981
HB	-8982
OS	-8983
RT	-8984
SE	-8985
]`	-8986
fe	-8987
ht	-8988
ly	-8989
od	-8990
tp	-8991
yp	-8992
·2	-8993
”→	-8994
↑[	-8995
▁>	-8996
▁H	-8997
▁d	-8998
▁k	-8999
▁’	-9000
▁→	-9001
▁났	-9002
▁는	-9003
▁둥	-9004
▁뜯	-9005
▁멘	-9006
▁벼	-9007
▁뽕	-9008
▁짐	-9009
▁톱	-9010
▁힐	-9011
가득	-9012
가문	-9013
가원	-9014
각성	-9015
감기	-9016
강간	-9017
같네	-9018
같지	-9019
개은	-9020
거고	-9021
거짓	-9022
검은	-9023
검찰	-9024
겟다	-9025
겟지	-9026
겠고	-9027
겨라	-9028
계악	-9029
고군	-9030
공판	-9031
공항	-9032
과해	-9033
괴왕	-9034
교육	-9035
교체	-9036
권태	-9037
귀병	-9038
그나	-9039
그랜	-9040
극혐	-9041
근영	-9042
금손	-9043
금액	-9044
기파	-9045
기화	-9046
긴장	-9047
김병	-9048
김주	-9049
까스	-9050
꺼면	-9051
끝내	-9052
나잇	-9053
남녀	-9054
남들	-9055
남썸	-9056
낭만	-9057
낳는	-9058
내년	-9059
내동	-9060
내일	-9061
냄새	-9062
너도	-9063
넘들	-9064
녀는	-9065
년대	-9066
년손	-9067
년연	-9068
노의	-9069
논의	-9070
누드	-9071
니들	-9072
다녀	-9073
닥친	-9074
단이	-9075
대들	-9076
대디	-9077
대박	-9078
대사	-9079
대회	-9080
덕제	-9081
도식	-9082
독전	-9083
동의	-9084
됐나	-9085
되길	-9086
되나	-9087
두부	-9088
든데	-9089
들통	-9090
듬체	-9091
디언	-9092
디킴	-9093
라구	-9094
라며	-9095
라박	-9096
라타	-9097
라테	-9098
란물	-9099
래기	-9100
러버	-9101
러브	-9102
려다	-9103
력이	-9104
령을	-9105
률이	-9106
르샤	-9107
른다	-9108
리건	-9109
리베	-9110
리어	-9111
리학	-9112
린게	-9113
마미	-9114
마시	-9115
마조	-9116
말할	-9117
먹었	-9118
먹을	-9119
명백	-9120
명불	-9121
명품	-9122
명훈	-9123
모티	-9124
몸은	-9125
못함	-9126
무새	-9127
무송	-9128
무실	-9129
문득	-9130
미라	-9131
미쓰	-9132
민망	-9133
민서	-9134
바다	-9135
박혁	-9136
반장	-9137
받은	-9138
받을	-9139
받지	-9140
밤빵	-9141
방함	-9142
배신	-9143
배틀	-9144
버려	-9145
버리	-9146
번호	-9147
변경	-9148
병맛	-9149
보게	-9150
보소	-9151
복근	-9152
본다	-9153
본될	-9154
본선	-9155
본업	-9156
부들	-9157
부자	-9158
분간	-9159
비극	-9160
비를	-9161
사리	-9162
산된	-9163
삼가	-9164
상국	-9165
상습	-9166
새기	-9167
생존	-9168
선물	-9169
선아	-9170
섭에	-9171
세경	-9172
세리	-9173
세상	-9174
세윤	-9175
소유	-9176
소주	-9177
소지	-9178
소화	-9179
속어	-9180
솔로	-9181
수는	-9182
수색	-9183
수저	-9184
수줍	-9185
수학	-9186
수현	-9187
슬픈	-9188
승재	-9189
시라	-9190
시술	-9191
시호	-9192
신랑	-9193
심사	-9194
십억	-9195
썸머	-9196
쓴다	-9197
아프	-9198
안경	-9199
안고	-9200
애연	-9201
앵란	-9202
야됨	-9203
약사	-9204
양연	-9205
어쩔	-9206
얻을	-9207
었을	-9208
에만	-9209
엑소	-9210
여기	-9211
여도	-9212
여명	-9213
연습	-9214
영재	-9215
영천	-9216
예쁨	-9217
오는	-9218
오래	-9219
오리	-9220
와대	-9221
와르	-9222
완료	-9223
운다	-9224
원흠	-9225
위탄	-9226
윤창	-9227
은아	-9228
음식	-9229
음중	-9230
의연	-9231
의욕	-9232
이비	-9233
이여	-9234
인드	-9235
인멸	-9236
인잔	-9237
인척	-9238
일된	-9239
일은	-9240
임청	-9241
입술	-9242
있던	-9243
자녀	-9244
자로	-9245
자유	-9246
작업	-9247
장소	-9248
장의	-9249
장환	-9250
재균	-9251
재혼	-9252
재홍	-9253
저나	-9254
전드	-9255
전사	-9256
전속	-9257
정부	-9258
정준	-9259
정진	-9260
정혜	-9261
조보	-9262
조차	-9263
종상	-9264
좌관	-9265
좌제	-9266
죄는	-9267
주안	-9268
준수	-9269
줌인	-9270
중국	-9271
즈로	-9272
지리	-9273
지인	-9274
지코	-9275
진설	-9276
진은	-9277
진희	-9278
짓을	-9279
징글	-9280
징어	-9281
짱이	-9282
찔한	-9283
찬열	-9284
참에	-9285
책상	-9286
처링	-9287
처분	-9288
처음	-9289
청결	-9290
체중	-9291
쳤네	-9292
추모	-9293
출수	-9294
치면	-9295
친거	-9296
친자	-9297
침대	-9298
카페	-9299
케미	-9300
콜릿	-9301
쾌차	-9302
키고	-9303
탁집	-9304
탈세	-9305
탈퇴	-9306
탑방	-9307
태규	-9308
태풍	-9309
통화	-9310
투갈	-9311
투리	-9312
투약	-9313
패스	-9314
퍼트	-9315
평가	-9316
평범	-9317
폐업	-9318
폐지	-9319
포감	-9320
폭소	-9321
표권	-9322
픔에	-9323
피자	-9324
피트	-9325
하신	-9326
하십	-9327
하죠	-9328
한결	-9329
한당	-9330
한부	-9331
함진	-9332
허전	-9333
헤어	-9334
현승	-9335
형량	-9336
호화	-9337
혼란	-9338
화교	-9339
화해	-9340
효력	-9341
흑발	-9342
희와	-9343
힘들	-9344
(12	-9345
(20	-9346
(23	-9347
(31	-9348
000	-9349
1'"	-9350
1]'	-9351
84·	-9352
://	-9353
EWs	-9354
]'9	-9355
ife	-9356
ull	-9357
▁"`	-9358
▁"’	-9359
▁49	-9360
▁51	-9361
▁52	-9362
▁77	-9363
▁87	-9364
▁??	-9365
▁CF	-9366
▁mc	-9367
▁가고	-9368
▁가는	-9369
▁가면	-9370
▁가져	-9371
▁간이	-9372
▁감히	-9373
▁갔나	-9374
▁개꿀	-9375
▁개리	-9376
▁거론	-9377
▁거부	-9378
▁거쳐	-9379
▁걷자	-9380
▁걸어	-9381
▁격려	-9382
▁결론	-9383
▁결말	-9384
▁결심	-9385
▁고딩	-9386
▁고집	-9387
▁공로	-9388
▁관상	-9389
▁교회	-9390
▁구현	-9391
▁구형	-9392
▁국뽕	-9393
▁굴순	-9394
▁권리	-9395
▁귀화	-9396
▁그딴	-9397
▁그지	-9398
▁그쪽	-9399
▁근거	-9400
▁기준	-9401
▁김풍	-9402
▁깨고	-9403
▁꺼져	-9404
▁꼬마	-9405
▁끝나	-9406
▁나누	-9407
▁나던	-9408
▁날린	-9409
▁남들	-9410
▁남북	-9411
▁남을	-9412
▁남탓	-9413
▁내기	-9414
▁너가	-9415
▁넘는	-9416
▁놈들	-9417
▁놈이	-9418
▁높은	-9419
▁다를	-9420
▁단독	-9421
▁담긴	-9422
▁당국	-9423
▁대접	-9424
▁대충	-9425
▁댄스	-9426
▁독수	-9427
▁돌릴	-9428
▁돼야	-9429
▁될듯	-9430
▁두려	-9431
▁둘러	-9432
▁드립	-9433
▁들통	-9434
▁딘딘	-9435
▁떨림	-9436
▁떼고	-9437
▁라멘	-9438
▁로또	-9439
▁리즈	-9440
▁마니	-9441
▁마더	-9442
▁만약	-9443
▁만의	-9444
▁만족	-9445
▁말든	-9446
▁망가	-9447
▁맞고	-9448
▁맞이	-9449
▁먹어	-9450
▁멘트	-9451
▁모교	-9452
▁몸짱	-9453
▁묘한	-9454
▁문구	-9455
▁물고	-9456
▁물들	-9457
▁뭔데	-9458
▁박스	-9459
▁반문	-9460
▁배운	-9461
▁백배	-9462
▁변기	-9463
▁보낸	-9464
▁보신	-9465
▁보증	-9466
▁부친	-9467
▁분석	-9468
▁분실	-9469
▁불이	-9470
▁불행	-9471
▁비추	-9472
▁비해	-9473
▁빼라	-9474
▁사유	-9475
▁산것	-9476
▁살좀	-9477
▁살짝	-9478
▁살찐	-9479
▁상영	-9480
▁상큼	-9481
▁상폐	-9482
▁생명	-9483
▁생후	-9484
▁서먹	-9485
▁서방	-9486
▁선곡	-9487
▁설립	-9488
▁섭섭	-9489
▁성은	-9490
▁세례	-9491
▁섹스	-9492
▁션이	-9493
▁소득	-9494
▁소주	-9495
▁쇄골	-9496
▁수고	-9497
▁숙녀	-9498
▁숙취	-9499
▁술집	-9500
▁슬퍼	-9501
▁실물	-9502
▁싫은	-9503
▁심판	-9504
▁싶음	-9505
▁쓰고	-9506
▁아군	-9507
▁아래	-9508
▁아름	-9509
▁아버	-9510
▁안봤	-9511
▁안부	-9512
▁안정	-9513
▁안했	-9514
▁않길	-9515
▁압도	-9516
▁압수	-9517
▁앵두	-9518
▁양복	-9519
▁양성	-9520
▁양손	-9521
▁어케	-9522
▁업소	-9523
▁없냐	-9524
▁여왕	-9525
▁여혐	-9526
▁영광	-9527
▁영국	-9528
▁예술	-9529
▁오는	-9530
▁올리	-9531
▁와요	-9532
▁왕따	-9533
▁요요	-9534
▁욕구	-9535
▁욕은	-9536
▁욕을	-9537
▁울며	-9538
▁원조	-9539
▁위엄	-9540
▁유족	-9541
▁윤상	-9542
▁윤하	-9543
▁은인	-9544
▁음반	-9545
▁응급	-9546
▁이들	-9547
▁이루	-9548
▁이쁨	-9549
▁이아	-9550
▁인데	-9551
▁인지	-9552
▁일신	-9553
▁일해	-9554
▁입열	-9555
▁잊어	-9556
▁잘될	-9557
▁잘버	-9558
▁잘하	-9559
▁잘해	-9560
▁장재	-9561
▁잼나	-9562
▁전액	-9563
▁전원	-9564
▁정작	-9565
▁제작	-9566
▁조국	-9567
▁조연	-9568
▁조폭	-9569
▁존잘	-9570
▁졸업	-9571
▁종국	-9572
▁좋게	-9573
▁좋으	-9574
▁주택	-9575
▁죽였	-9576
▁줌마	-9577
▁중태	-9578
▁지디	-9579
▁지킨	-9580
▁질질	-9581
▁집유	-9582
▁징그	-9583
▁짜고	-9584
▁짱개	-9585
▁차별	-9586
▁채취	-9587
▁챙겨	-9588
▁챙기	-9589
▁천리	-9590
▁천박	-9591
▁치치	-9592
▁카레	-9593
▁캐롤	-9594
▁커준	-9595
▁컸다	-9596
▁크다	-9597
▁크면	-9598
▁키가	-9599
▁탈의	-9600
▁터진	-9601
▁통증	-9602
▁특별	-9603
▁틀딱	-9604
▁파악	-9605
▁파혼	-9606
▁패셔	-9607
▁편지	-9608
▁평가	-9609
▁폭염	-9610
▁풀까	-9611
▁하드	-9612
▁하셨	-9613
▁하이	-9614
▁한결	-9615
▁한두	-9616
▁한복	-9617
▁할때	-9618
▁할래	-9619
▁할줄	-9620
▁합격	-9621
▁했네	-9622
▁현명	-9623
▁혐오	-9624
▁혜선	-9625
▁호칭	-9626
▁혹은	-9627
▁혹평	-9628
▁혼란	-9629
▁화났	-9630
▁화답	-9631
▁화면	-9632
▁환생	-9633
▁황금	-9634
▁희율	-9635
▁희한	-9636
▁힘드	-9637
가난한	-9638
가보네	-9639
가족도	-9640
각시별	-9641
강기영	-9642
개월차	-9643
건가요	-9644
결말은	-9645
고소영	-9646
고싶은	-9647
골든디	-9648
공항서	-9649
궁전의	-9650
귀염상	-9651
귀엽게	-9652
그래서	-9653
그랜절	-9654
그러고	-9655
그룹명	-9656
긴한데	-9657
김동성	-9658
김래원	-9659
김병철	-9660
김보라	-9661
김선호	-9662
김성주	-9663
김종국	-9664
김주헌	-9665
김태리	-9666
김하경	-9667
나혜미	-9668
날까봐	-9669
남썸녀	-9670
났는데	-9671
내사랑	-9672
넘치는	-9673
년손님	-9674
년연속	-9675
놓겠다	-9676
는건데	-9677
다날다	-9678
다는데	-9679
대세는	-9680
더머니	-9681
도식서	-9682
도의에	-9683
되네요	-9684
되는데	-9685
두부찌	-9686
뒤늦은	-9687
드밀리	-9688
듬체조	-9689
디기파	-9690
디즈니	-9691
딩크족	-9692
딸아들	-9693
라는거	-9694
렸는데	-9695
로이킴	-9696
롤모델	-9697
리고파	-9698
리베카	-9699
리세요	-9700
마마트	-9701
마조마	-9702
만원에	-9703
만이야	-9704
맛녀석	-9705
맛있는	-9706
매력도	-9707
메시지	-9708
명복을	-9709
명탐정	-9710
모델의	-9711
목소리	-9712
몸무게	-9713
무실서	-9714
문희준	-9715
물리학	-9716
미쳤다	-9717
미추리	-9718
바람녀	-9719
박미선	-9720
박서준	-9721
박세미	-9722
박신혜	-9723
박혁권	-9724
반드시	-9725
밤하늘	-9726
방예담	-9727
배신감	-9728
버리네	-9729
범불안	-9730
보니까	-9731
보다가	-9732
보이고	-9733
복길이	-9734
봅시다	-9735
봉준호	-9736
부산의	-9737
분방함	-9738
블락비	-9739
비공개	-9740
비아이	-9741
비주얼	-9742
살인데	-9743
삼촌과	-9744
생각이	-9745
생존기	-9746
성공한	-9747
성내동	-9748
성실히	-9749
세자빈	-9750
소주파	-9751
손연재	-9752
손태영	-9753
송윤아	-9754
수민과	-9755
숨겨진	-9756
슈스케	-9757
스웨그	-9758
스티벌	-9759
스티븐	-9760
스폰서	-9761
시청자	-9762
신소율	-9763
신수지	-9764
신지수	-9765
신해철	-9766
심각성	-9767
쌍둥이	-9768
아모르	-9769
아무도	-9770
아쉬움	-9771
아였다	-9772
애연가	-9773
양연화	-9774
양지원	-9775
어나온	-9776
어러블	-9777
어붙은	-9778
언젠간	-9779
얼굴에	-9780
엄앵란	-9781
었어요	-9782
여론이	-9783
여친에	-9784
역사적	-9785
올게요	-9786
왕밤빵	-9787
요리가	-9788
우다사	-9789
운동화	-9790
유령을	-9791
유세윤	-9792
유종의	-9793
윤성과	-9794
윤성호	-9795
윤시윤	-9796
윤태영	-9797
으로만	-9798
이규형	-9799
이나리	-9800
이더라	-9801
이동건	-9802
이멤버	-9803
이무송	-9804
이쁘다	-9805
이서원	-9806
이성우	-9807
이은성	-9808
이준혁	-9809
이지는	-9810
이창민	-9811
이혜경	-9812
인인데	-9813
임신중	-9814
임청하	-9815
있는듯	-9816
있어요	-9817
재촬영	-9818
적인가	-9819
전미라	-9820
정가은	-9821
정석원	-9822
정신청	-9823
정진철	-9824
정혜영	-9825
제대로	-9826
조수향	-9827
죄책감	-9828
중인데	-9829
중학교	-9830
지금과	-9831
진서연	-9832
진아에	-9833
진흙탕	-9834
차공판	-9835
차지연	-9836
채민서	-9837
채수빈	-9838
천명훈	-9839
총장과	-9840
최은경	-9841
추자현	-9842
치료에	-9843
치유기	-9844
친동안	-9845
코미디	-9846
코수술	-9847
토이스	-9848
팀이름	-9849
파괴왕	-9850
팬계정	-9851
페셔널	-9852
편하게	-9853
하는것	-9854
하희라	-9855
한사람	-9856
한재석	-9857
할려고	-9858
할수도	-9859
함소원	-9860
해야함	-9861
해주는	-9862
했겠지	-9863
호텔서	-9864
홍윤화	-9865
홍지민	-9866
환하게	-9867
황교익	-9868
황동주	-9869
황신혜	-9870
황하나	-9871
희대의	-9872
...6	-9873
.7%"	-9874
NEWs	-9875
http	-9876
~!!!	-9877
▁""2	-9878
▁'20	-9879
▁180	-9880
▁ART	-9881
▁SOS	-9882
▁god	-9883
▁ᄃᄃᄃ	-9884
▁“16	-9885
▁“25	-9886
▁가족사	-9887
▁가처분	-9888
▁각선미	-9889
▁감동의	-9890
▁감동인	-9891
▁감탄한	-9892
▁갓정아	-9893
▁갖춰진	-9894
▁같았던	-9895
▁검색어	-9896
▁것이다	-9897
▁게다가	-9898
▁게시물	-9899
▁결혼하	-9900
▁경반장	-9901
▁경수진	-9902
▁경신할	-9903
▁계속됨	-9904
▁고승우	-9905
▁고장환	-9906
▁고준희	-9907
▁공연할	-9908
▁공판엔	-9909
▁공포감	-9910
▁괜찮은	-9911
▁교본될	-9912
▁군대도	-9913
▁권모씨	-9914
▁귀가한	-9915
▁그러고	-9916
▁그리움	-9917
▁글자가	-9918
▁기부로	-9919
▁기사는	-9920
▁기억해	-9921
▁기회도	-9922
▁김도훈	-9923
▁김새론	-9924
▁김영광	-9925
▁김지연	-9926
▁김지원	-9927
▁꾸미지	-9928
▁나라가	-9929
▁나르샤	-9930
▁나쁜놈	-9931
▁나온거	-9932
▁나왔어	-9933
▁나혼산	-9934
▁남는다	-9935
▁내조의	-9936
▁너무나	-9937
▁넘치네	-9938
▁녀석들	-9939
▁노래도	-9940
▁노력형	-9941
▁놓쳤다	-9942
▁누구랑	-9943
▁누군가	-9944
▁눈물과	-9945
▁눈부신	-9946
▁뉴스에	-9947
▁느와르	-9948
▁다나의	-9949
▁다이빙	-9950
▁단아한	-9951
▁닮아서	-9952
▁대단해	-9953
▁대마초	-9954
▁대선배	-9955
▁대종상	-9956
▁도깨비	-9957
▁도왔다	-9958
▁도의적	-9959
▁돈까스	-9960
▁돈주고	-9961
▁동시에	-9962
▁되는거	-9963
▁떨어진	-9964
▁똑같이	-9965
▁뜨겁다	-9966
▁라이프	-9967
▁로코퀸	-9968
▁류수영	-9969
▁리멤버	-9970
▁리퍼트	-9971
▁마셔요	-9972
▁마시고	-9973
▁만나면	-9974
▁만들었	-9975
▁만찢녀	-9976
▁말렸다	-9977
▁말아먹	-9978
▁말없이	-9979
▁맘대로	-9980
▁맞는말	-9981
▁맞벌이	-9982
▁맞지만	-9983
▁매력은	-9984
▁먹었다	-9985
▁모든게	-9986
▁몰라도	-9987
▁몰입이	-9988
▁몸무게	-9989
▁무겁고	-9990
▁무보정	-9991
▁문근영	-9992
▁문보미	-9993
▁문제다	-9994
▁문제인	-9995
▁묻히다	-9996
▁미공개	-9997
▁미나는	-9998
▁미녀의	-9999
▁믿었다	-10000
▁밀어주	-10001
▁바래요	-10002
▁바로잡	-10003
▁박가원	-10004
▁박보영	-10005
▁반하게	-10006
▁발리서	-10007
▁밝힌다	-10008
▁방법이	-10009
▁배려는	-10010
▁배우는	-10011
▁배우자	-10012
▁벌어야	-10013
▁벗어날	-10014
▁벗으면	-10015
▁벗을까	-10016
▁변명의	-10017
▁변요한	-10018
▁병원장	-10019
▁보내길	-10020
▁보냈다	-10021
▁보더니	-10022
▁보러온	-10023
▁봉준호	-10024
▁봤으면	-10025
▁부성애	-10026
▁분노한	-10027
▁불발에	-10028
▁비속어	-10029
▁비슷한	-10030
▁비판에	-10031
▁빌기로	-10032
▁빠순이	-10033
▁사고로	-10034
▁사고에	-10035
▁사랑할	-10036
▁사진과	-10037
▁살아서	-10038
▁상하이	-10039
▁상황실	-10040
▁새가족	-10041
▁새출발	-10042
▁생겼다	-10043
▁서동주	-10044
▁서우진	-10045
▁서울서	-10046
▁선택은	-10047
▁설레는	-10048
▁성형은	-10049
▁성형한	-10050
▁소화력	-10051
▁손나은	-10052
▁손예림	-10053
▁스웨그	-10054
▁슬프게	-10055
▁승리는	-10056
▁시청율	-10057
▁시한부	-10058
▁신지수	-10059
▁실종된	-10060
▁싫어서	-10061
▁싫었다	-10062
▁심대한	-10063
▁싶어서	-10064
▁아끼는	-10065
▁아닌거	-10066
▁아무런	-10067
▁아이고	-10068
▁아이들	-10069
▁아이를	-10070
▁아이콘	-10071
▁아찔한	-10072
▁악플이	-10073
▁안검하	-10074
▁안나오	-10075
▁안나요	-10076
▁안된다	-10077
▁안보여	-10078
▁안재홍	-10079
▁안해도	-10080
▁애즈원	-10081
▁어떨까	-10082
▁어릴때	-10083
▁어릴적	-10084
▁언냐들	-10085
▁언니도	-10086
▁얼굴만	-10087
▁얼굴을	-10088
▁없던데	-10089
▁에디킴	-10090
▁여전한	-10091
▁역풍에	-10092
▁연좌제	-10093
▁예뻐져	-10094
▁예쁜데	-10095
▁오늘도	-10096
▁오정욱	-10097
▁오징어	-10098
▁올리며	-10099
▁올스톱	-10100
▁와인잔	-10101
▁왔는데	-10102
▁요리도	-10103
▁우주안	-10104
▁운영자	-10105
▁월요병	-10106
▁웹툰은	-10107
▁유경아	-10108
▁유니티	-10109
▁유소영	-10110
▁유수빈	-10111
▁유아인	-10112
▁유키스	-10113
▁음란물	-10114
▁의사에	-10115
▁의연한	-10116
▁이도현	-10117
▁이동휘	-10118
▁이런애	-10119
▁이선균	-10120
▁이소연	-10121
▁이수지	-10122
▁이시아	-10123
▁이어진	-10124
▁이열음	-10125
▁이용우	-10126
▁이제훈	-10127
▁이틀째	-10128
▁이필립	-10129
▁이현이	-10130
▁이혼을	-10131
▁이혼조	-10132
▁이후로	-10133
▁인상이	-10134
▁일단락	-10135
▁임블리	-10136
▁임은경	-10137
▁입었다	-10138
▁있기를	-10139
▁있어서	-10140
▁잊지않	-10141
▁자택에	-10142
▁작가님	-10143
▁잘살고	-10144
▁잘해줘	-10145
▁잘했다	-10146
▁잡아주	-10147
▁전국민	-10148
▁절대로	-10149
▁절친의	-10150
▁정도로	-10151
▁정체에	-10152
▁조금만	-10153
▁조덕제	-10154
▁좋았음	-10155
▁좋을듯	-10156
▁좋지만	-10157
▁죽어라	-10158
▁줄여야	-10159
▁줄이야	-10160
▁지우기	-10161
▁지울까	-10162
▁지인에	-10163
▁직접적	-10164
▁집들이	-10165
▁징역형	-10166
▁짝사랑	-10167
▁착하게	-10168
▁찬란한	-10169
▁청파동	-10170
▁초호화	-10171
▁총금액	-10172
▁촬영물	-10173
▁최병길	-10174
▁최진호	-10175
▁춤출수	-10176
▁카라타	-10177
▁커플샷	-10178
▁케이크	-10179
▁톱스타	-10180
▁파리서	-10181
▁파이팅	-10182
▁파트너	-10183
▁팬들은	-10184
▁페이크	-10185
▁평창동	-10186
▁포옹에	-10187
▁풀어요	-10188
▁프로포	-10189
▁피소에	-10190
▁피처링	-10191
▁피해를	-10192
▁필라테	-10193
▁하나님	-10194
▁하리수	-10195
▁하여튼	-10196
▁하오와	-10197
▁하와이	-10198
▁하하하	-10199
▁한다는	-10200
▁한명은	-10201
▁한소희	-10202
▁한심한	-10203
▁할머니	-10204
▁했지만	-10205
▁현빈과	-10206
▁현아의	-10207
▁홍탁집	-10208
▁화제된	-10209
▁환경서	-10210
▁황재균	-10211
▁황정음	-10212
▁황태자	-10213
▁휘둘릴	-10214
▁흥해라	-10215
▁흥행세	-10216
▁희귀병	-10217
가짜뉴스	-10218
거슬린다	-10219
계악효력	-10220
교통사고	-10221
긴어게인	-10222
김종섭에	-10223
낭만닥터	-10224
논란에도	-10225
누드화보	-10226
독보적인	-10227
들이닥친	-10228
라임이의	-10229
러버까지	-10230
마마랜드	-10231
매력부자	-10232
명불허전	-10233
명품복근	-10234
무대매너	-10235
미워하지	-10236
박나래도	-10237
밤하늘의	-10238
방송하차	-10239
부끄럽다	-10240
부부싸움	-10241
비지니스	-10242
사람들도	-10243
사람들은	-10244
산다라박	-10245
상습도박	-10246
소화불량	-10247
수면장애	-10248
시선강탈	-10249
시술논란	-10250
신재은이	-10251
실력으로	-10252
실명보도	-10253
아는형님	-10254
약속대로	-10255
얼어붙은	-10256
여유로운	-10257
여자친구	-10258
염라언니	-10259
영상통화	-10260
예비신부	-10261
예서책상	-10262
윤창호법	-10263
음악중심	-10264
음악활동	-10265
의연하자	-10266
이라는게	-10267
이만하길	-10268
입술사진	-10269
작업당한	-10270
적수없는	-10271
전속계약	-10272
전신마비	-10273
정상회담	-10274
조문까지	-10275
조보아가	-10276
증거인멸	-10277
직접해명	-10278
쾌차하길	-10279
톱모델의	-10280
판매불가	-10281
판매자들	-10282
하는거지	-10283
하루살이	-10284
한국인이	-10285
한다는데	-10286
함께해줘	-10287
함진부부	-10288
해주시길	-10289
홀로서기	-10290
후배들에	-10291
힐링식당	-10292
!!!!!	-10293
'...3	-10294
.3%'"	-10295
.4%'"	-10296
’..""	-10297
▁"""'	-10298
▁"[55	-10299
▁2200	-10300
▁Full	-10301
▁LOVE	-10302
▁ᄒᄒᄒᄒ	-10303
▁감동시킨	-10304
▁강요하는	-10305
▁개나소나	-10306
▁고마해라	-10307
▁교무실서	-10308
▁김지철은	-10309
▁깜짝출연	-10310
▁나오는거	-10311
▁나왔으면	-10312
▁날씬해진	-10313
▁남자들이	-10314
▁넘겨졌다	-10315
▁노라조가	-10316
▁노래발표	-10317
▁논란까지	-10318
▁다하고파	-10319
▁달라지나	-10320
▁대화방서	-10321
▁데뷔전도	-10322
▁데이트로	-10323
▁데이트에	-10324
▁도와달라	-10325
▁독립운동	-10326
▁독수리건	-10327
▁드라마를	-10328
▁라임이의	-10329
▁리듬체조	-10330
▁먹이면서	-10331
▁명품백도	-10332
▁명품옷에	-10333
▁목격했다	-10334
▁문재앙이	-10335
▁박명수의	-10336
▁박한별이	-10337
▁박호산만	-10338
▁반전이죠	-10339
▁발언으로	-10340
▁방송하길	-10341
▁배웅하러	-10342
▁법적절차	-10343
▁보여주고	-10344
▁보이는데	-10345
▁부들부들	-10346
▁불리고파	-10347
▁불법영상	-10348
▁불법투약	-10349
▁불쾌하다	-10350
▁비밀연애	-10351
▁비현실적	-10352
▁빙의한듯	-10353
▁빠순이들	-10354
▁사람들도	-10355
▁사람인데	-10356
▁사랑해라	-10357
▁사로잡을	-10358
▁사장으로	-10359
▁살려낸다	-10360
▁살아간다	-10361
▁생각하는	-10362
▁생일파티	-10363
▁선행에도	-10364
▁성범죄자	-10365
▁세상에서	-10366
▁소화하는	-10367
▁숙소생활	-10368
▁스위스서	-10369
▁실명공개	-10370
▁썸남썸녀	-10371
▁아군인가	-10372
▁아니었다	-10373
▁아들들과	-10374
▁아이돌부	-10375
▁아이들이	-10376
▁아이아이	-10377
▁아티스트	-10378
▁안어울림	-10379
▁압수수색	-10380
▁야구장서	-10381
▁양손잡이	-10382
▁어머니가	-10383
▁어머니는	-10384
▁얼굴만한	-10385
▁여지없다	-10386
▁역할까지	-10387
▁연예인급	-10388
▁연예인도	-10389
▁연인에게	-10390
▁오죽하면	-10391
▁왕진진과	-10392
▁웨어러블	-10393
▁유재석은	-10394
▁윤진아에	-10395
▁음반대상	-10396
▁음성공개	-10397
▁음주사고	-10398
▁응원하는	-10399
▁이상윤에	-10400
▁이시언의	-10401
▁이어지는	-10402
▁이중성에	-10403
▁이필모가	-10404
▁이혼절차	-10405
▁인생작은	-10406
▁일본말로	-10407
▁일본에서	-10408
▁일상으로	-10409
▁일신상의	-10410
▁입열었다	-10411
▁자빠졌네	-10412
▁잘어울림	-10413
▁장난으로	-10414
▁재미없어	-10415
▁재회까지	-10416
▁전소민에	-10417
▁전수민과	-10418
▁전현무는	-10419
▁전현무와	-10420
▁조마조마	-10421
▁조사받고	-10422
▁주현미가	-10423
▁주홍글씨	-10424
▁진심고백	-10425
▁집도의에	-10426
▁차은우야	-10427
▁채널돌림	-10428
▁천재이자	-10429
▁청룡영화	-10430
▁체포될듯	-10431
▁초등학생	-10432
▁최우수상	-10433
▁추도식서	-10434
▁추락사고	-10435
▁친구와의	-10436
▁카레니나	-10437
▁캠핑하는	-10438
▁커플사진	-10439
▁커플선언	-10440
▁케이케이	-10441
▁코스프레	-10442
▁코피까지	-10443
▁쿵쾅이들	-10444
▁페스티벌	-10445
▁포르투갈	-10446
▁폭풍눈물	-10447
▁하지마라	-10448
▁할리우드	-10449
▁할아버지	-10450
▁함께였다	-10451
▁함께했다	-10452
▁함소원이	-10453
▁합의이혼	-10454
▁혼자있냐	-10455
▁혼전임신	-10456
▁홀로서기	-10457
▁화양연화	-10458
▁확인완료	-10459
▁확인했다	-10460
골든디스크	-10461
두부찌개은	-10462
들통날까봐	-10463
랜뉴뮤직과	-10464
범불안장애	-10465
삼가고인의	-10466
서울메이트	-10467
슈퍼주니어	-10468
아모르파티	-10469
아이스버킷	-10470
여우각시별	-10471
예고만으로	-10472
예비신부는	-10473
오랜만이야	-10474
이혼이라니	-10475
조선명탐정	-10476
조선생존기	-10477
착한마녀전	-10478
청년사업가	-10479
토이스토리	-10480
히트메이커	-10481
↑""...	-10482
▁"""21	-10483
▁"""90	-10484
▁#0.3%	-10485
▁'21'"	-10486
▁경반장부터	-10487
▁경찰총장과	-10488
▁나름이에요	-10489
▁남녀조연상	-10490
▁내려놓겠다	-10491
▁다녀올게요	-10492
▁다이어트의	-10493
▁닮은꼴까지	-10494
▁라멘집부터	-10495
▁류필립하기	-10496
▁모르겠지만	-10497
▁모유비누가	-10498
▁뮤지컬배우	-10499
▁박스오피스	-10500
▁발끈하기는	-10501
▁사생아였다	-10502
▁사주선생님	-10503
▁섭섭합니다	-10504
▁스카이캐슬	-10505
▁신경쓰이지	-10506
▁싸가지없이	-10507
▁악성림프종	-10508
▁연애해야죠	-10509
▁응원해야지	-10510
▁이지안으로	-10511
▁일어나느냐	-10512
▁자랑스러워	-10513
▁자유분방함	-10514
▁진심이었다	-10515
▁천리마마트	-10516
▁쿵쾅이들이	-10517
▁통화만으로	-10518
▁패셔니스타	-10519
▁프로페셔널	-10520
계악효력정지	-10521
내사랑치유기	-10522
마이크로닷과	-10523
조카면족하다	-10524
해외상습도박	-10525
!!!!!!!	-10526
""...30	-10527
NEWsing	-10528
▁20.7%"	-10529
▁남북정상회담	-10530
▁드릴러버까지	-10531
▁들어오는거야	-10532
▁바지사장에서	-10533
▁방탄소년단과	-10534
▁부탁드립니다	-10535
▁브랜뉴뮤직과	-10536
▁알츠하이머에	-10537
▁이혼조정신청	-10538
▁청룡영화상이	-10539
알함브라궁전의	-10540
▁14.3%'"	-10541
▁굴순두부찌개은	-10542
▁이혜성아나운서	-10543
""...2018	-10544
.........	-10545
▁'11.4%'"	-10546
▁전속계악효력정지	-10547
▁ᄏᄏᄏᄏᄏᄏᄏᄏᄏ	-10548
(4	-10549
,'	-10550
-‘	-10551
1(	-10552
17	-10553
2`	-10554
4%	-10555
52	-10556
7'	-10557
85	-10558
?(	-10559
AT	-10560
BN	-10561
IO	-10562
OK	-10563
](	-10564
`"	-10565
ᄉᄉ	-10566
ᅮᅲ	-10567
↑·	-10568
▁B	-10569
▁E	-10570
▁o	-10571
▁·	-10572
▁굿	-10573
▁규	-10574
▁랑	-10575
▁룩	-10576
▁몬	-10577
▁셀	-10578
▁셈	-10579
▁씩	-10580
▁엿	-10581
▁을	-10582
▁쥬	-10583
▁콘	-10584
▁콩	-10585
▁테	-10586
▁핸	-10587
가네	-10588
가사	-10589
가야	-10590
가을	-10591
간건	-10592
감은	-10593
감형	-10594
갑질	-10595
갔네	-10596
강단	-10597
개미	-10598
개한	-10599
거니	-10600
거품	-10601
건물	-10602
검색	-10603
게더	-10604
겨도	-10605
겨울	-10606
결국	-10607
결단	-10608
경리	-10609
과거	-10610
괜한	-10611
교길	-10612
국진	-10613
규종	-10614
그는	-10615
그새	-10616
급은	-10617
긋지	-10618
기네	-10619
기싫	-10620
기적	-10621
기지	-10622
김수	-10623
김의	-10624
까진	-10625
꺼풀	-10626
꾼은	-10627
난감	-10628
난리	-10629
내부	-10630
놀랍	-10631
놈의	-10632
느껴	-10633
느니	-10634
니당	-10635
님도	-10636
님들	-10637
다닐	-10638
다들	-10639
달랐	-10640
담패	-10641
대단	-10642
대도	-10643
대부	-10644
대성	-10645
댄다	-10646
도소	-10647
도와	-10648
독교	-10649
동에	-10650
돼서	-10651
되게	-10652
두달	-10653
두환	-10654
드카	-10655
드티	-10656
드폰	-10657
든가	-10658
들갑	-10659
들길	-10660
등이	-10661
디슈	-10662
디움	-10663
딱지	-10664
딸들	-10665
때가	-10666
떠냐	-10667
랐다	-10668
래드	-10669
러플	-10670
럽지	-10671
려는	-10672
례식	-10673
로버	-10674
루노	-10675
르게	-10676
리라	-10677
리를	-10678
리설	-10679
리에	-10680
린데	-10681
림한	-10682
마어	-10683
막내	-10684
말든	-10685
망손	-10686
맞은	-10687
매치	-10688
먼저	-10689
명과	-10690
명랑	-10691
명호	-10692
목젖	-10693
몰이	-10694
무사	-10695
무엇	-10696
문안	-10697
뭉뜬	-10698
뭐가	-10699
뭐냐	-10700
미정	-10701
바웃	-10702
바짝	-10703
박성	-10704
박일	-10705
반격	-10706
반지	-10707
밥을	-10708
배는	-10709
백스	-10710
버린	-10711
별이	-10712
병진	-10713
보드	-10714
보시	-10715
보일	-10716
복무	-10717
복숭	-10718
본드	-10719
부성	-10720
부심	-10721
부활	-10722
분은	-10723
분이	-10724
분투	-10725
불러	-10726
불화	-10727
비는	-10728
비닐	-10729
비밀	-10730
사망	-10731
사생	-10732
사죄	-10733
상도	-10734
새로	-10735
생긴	-10736
생이	-10737
서가	-10738
서슬	-10739
석이	-10740
선처	-10741
선호	-10742
설까	-10743
설래	-10744
설수	-10745
설정	-10746
세용	-10747
셔리	-10748
셔야	-10749
소식	-10750
소할	-10751
수랑	-10752
수아	-10753
수정	-10754
수트	-10755
수형	-10756
순한	-10757
스쿨	-10758
스픽	-10759
슬혜	-10760
시게	-10761
시니	-10762
시박	-10763
시원	-10764
시켰	-10765
시험	-10766
식샤	-10767
신도	-10768
신일	-10769
실형	-10770
심만	-10771
싶다	-10772
씨야	-10773
씬은	-10774
아까	-10775
아버	-10776
악뮤	-10777
안돼	-10778
안마	-10779
안보	-10780
안희	-10781
앞에	-10782
애애	-10783
액션	-10784
양임	-10785
양자	-10786
어느	-10787
어를	-10788
억씩	-10789
억은	-10790
언이	-10791
언제	-10792
없게	-10793
없냐	-10794
여름	-10795
역할	-10796
연내	-10797
연홍	-10798
오고	-10799
온한	-10800
올려	-10801
와치	-10802
완전	-10803
외도	-10804
용서	-10805
우뚝	-10806
우울	-10807
움을	-10808
웃김	-10809
위에	-10810
유람	-10811
유빈	-10812
유석	-10813
유족	-10814
윤지	-10815
으나	-10816
으론	-10817
은서	-10818
은양	-10819
은이	-10820
을수	-10821
음성	-10822
이군	-10823
이루	-10824
이번	-10825
이와	-10826
이요	-10827
이즈	-10828
인들	-10829
인분	-10830
인선	-10831
일간	-10832
일의	-10833
일차	-10834
임송	-10835
임은	-10836
입양	-10837
입은	-10838
있을	-10839
자극	-10840
자넷	-10841
자체	-10842
잔데	-10843
장기	-10844
장님	-10845
장도	-10846
장사	-10847
재가	-10848
재개	-10849
재기	-10850
재회	-10851
전국	-10852
전성	-10853
전제	-10854
전후	-10855
점점	-10856
정권	-10857
정밀	-10858
제목	-10859
제차	-10860
조리	-10861
조심	-10862
주량	-10863
주자	-10864
준거	-10865
줘서	-10866
직한	-10867
진국	-10868
질긴	-10869
질로	-10870
짓은	-10871
짧은	-10872
차량	-10873
채원	-10874
천만	-10875
청룡	-10876
쳐도	-10877
쳐라	-10878
추락	-10879
추석	-10880
출국	-10881
충들	-10882
치게	-10883
침표	-10884
카인	-10885
캐리	-10886
커스	-10887
케팅	-10888
코메	-10889
크린	-10890
크몬	-10891
큰딸	-10892
킬빌	-10893
탈모	-10894
태웅	-10895
터지	-10896
테고	-10897
테랑	-10898
테르	-10899
토록	-10900
트럼	-10901
트립	-10902
티랑	-10903
파격	-10904
파이	-10905
팬들	-10906
퍼런	-10907
퍼비	-10908
폭언	-10909
폭증	-10910
피아	-10911
필요	-10912
학과	-10913
한남	-10914
한체	-10915
한치	-10916
항상	-10917
항해	-10918
해수	-10919
해졌	-10920
해킹	-10921
향이	-10922
허리	-10923
현수	-10924
현은	-10925
현희	-10926
혜경	-10927
호탄	-10928
혼인	-10929
홍기	-10930
홍자	-10931
화극	-10932
화답	-10933
화력	-10934
황품	-10935
효과	-10936
후에	-10937
후회	-10938
휴대	-10939
희열	-10940
희진	-10941
히고	-10942
히티	-10943
!""	-10944
'·'	-10945
)[★	-10946
..♥	-10947
180	-10948
2)"	-10949
2]"	-10950
?’"	-10951
ION	-10952
MBN	-10953
tvN	-10954
~40	-10955
ᄍᄍᄍ	-10956
↑`"	-10957
→'♥	-10958
→45	-10959
→66	-10960
▁'4	-10961
▁33	-10962
▁41	-10963
▁5%	-10964
▁;;	-10965
▁OK	-10966
▁ᄉᄉ	-10967
▁韓日	-10968
▁가동	-10969
▁가라	-10970
▁가졌	-10971
▁간다	-10972
▁강두	-10973
▁강박	-10974
▁같고	-10975
▁개이	-10976
▁개판	-10977
▁개한	-10978
▁거뜬	-10979
▁거르	-10980
▁거슬	-10981
▁거야	-10982
▁거요	-10983
▁거임	-10984
▁거주	-10985
▁거참	-10986
▁거침	-10987
▁건모	-10988
▁건지	-10989
▁걸러	-10990
▁검사	-10991
▁결백	-10992
▁겸업	-10993
▁고기	-10994
▁고맙	-10995
▁곱게	-10996
▁공약	-10997
▁광대	-10998
▁괴담	-10999
▁구구	-11000
▁구입	-11001
▁국내	-11002
▁국면	-11003
▁그건	-11004
▁그것	-11005
▁그날	-11006
▁그알	-11007
▁그의	-11008
▁극적	-11009
▁글만	-11010
▁글을	-11011
▁급식	-11012
▁기각	-11013
▁기섭	-11014
▁길게	-11015
▁김아	-11016
▁까멜	-11017
▁꿈꿔	-11018
▁끼리	-11019
▁낙점	-11020
▁난다	-11021
▁난청	-11022
▁남주	-11023
▁낫지	-11024
▁낭패	-11025
▁내면	-11026
▁냄비	-11027
▁넘들	-11028
▁넘사	-11029
▁넘어	-11030
▁노인	-11031
▁놀고	-11032
▁놀러	-11033
▁놈도	-11034
▁뇌가	-11035
▁누락	-11036
▁늙고	-11037
▁다닐	-11038
▁다름	-11039
▁다현	-11040
▁단념	-11041
▁달고	-11042
▁닮음	-11043
▁담아	-11044
▁당장	-11045
▁대결	-11046
▁대란	-11047
▁대해	-11048
▁더더	-11049
▁독자	-11050
▁돈은	-11051
▁돌잔	-11052
▁동의	-11053
▁되도	-11054
▁되어	-11055
▁되었	-11056
▁떠오	-11057
▁떠올	-11058
▁떼창	-11059
▁라도	-11060
▁레슨	-11061
▁로맨	-11062
▁리가	-11063
▁리그	-11064
▁리드	-11065
▁리딩	-11066
▁마디	-11067
▁마린	-11068
▁막말	-11069
▁만료	-11070
▁많을	-11071
▁말던	-11072
▁말만	-11073
▁맘껏	-11074
▁맘이	-11075
▁맞네	-11076
▁맞붙	-11077
▁맞음	-11078
▁매우	-11079
▁머물	-11080
▁멍청	-11081
▁멘탈	-11082
▁면목	-11083
▁명곡	-11084
▁모욕	-11085
▁모함	-11086
▁몰아	-11087
▁몸이	-11088
▁무근	-11089
▁무기	-11090
▁무단	-11091
▁물건	-11092
▁뭐니	-11093
▁미드	-11094
▁미워	-11095
▁미주	-11096
▁미화	-11097
▁민간	-11098
▁민족	-11099
▁믿는	-11100
▁바다	-11101
▁바닥	-11102
▁바쁘	-11103
▁박훈	-11104
▁반파	-11105
▁받는	-11106
▁발음	-11107
▁밝히	-11108
▁밥먹	-11109
▁방영	-11110
▁백번	-11111
▁백성	-11112
▁백퍼	-11113
▁버티	-11114
▁번호	-11115
▁벌레	-11116
▁변수	-11117
▁변함	-11118
▁병합	-11119
▁보네	-11120
▁보상	-11121
▁보석	-11122
▁보수	-11123
▁보컬	-11124
▁본질	-11125
▁봐서	-11126
▁분쟁	-11127
▁불매	-11128
▁불임	-11129
▁비꼬	-11130
▁비위	-11131
▁빚은	-11132
▁빛난	-11133
▁살리	-11134
▁삶에	-11135
▁생김	-11136
▁생애	-11137
▁서다	-11138
▁선배	-11139
▁선생	-11140
▁설왕	-11141
▁설치	-11142
▁성사	-11143
▁성지	-11144
▁세븐	-11145
▁세탁	-11146
▁셀카	-11147
▁셔츠	-11148
▁소설	-11149
▁손에	-11150
▁송윤	-11151
▁쇄도	-11152
▁쇼미	-11153
▁수애	-11154
▁수줍	-11155
▁수트	-11156
▁숙제	-11157
▁순수	-11158
▁순식	-11159
▁숨을	-11160
▁슈돌	-11161
▁스토	-11162
▁승기	-11163
▁시비	-11164
▁시상	-11165
▁시투	-11166
▁신곡	-11167
▁심정	-11168
▁싼티	-11169
▁쓸데	-11170
▁악연	-11171
▁악행	-11172
▁안남	-11173
▁안될	-11174
▁안믿	-11175
▁안변	-11176
▁앉아	-11177
▁않냐	-11178
▁애국	-11179
▁애나	-11180
▁애매	-11181
▁야노	-11182
▁야동	-11183
▁야한	-11184
▁양가	-11185
▁양측	-11186
▁어쩐	-11187
▁업체	-11188
▁에구	-11189
▁엑스	-11190
▁여길	-11191
▁여는	-11192
▁여시	-11193
▁여편	-11194
▁염따	-11195
▁영접	-11196
▁예서	-11197
▁오만	-11198
▁오일	-11199
▁오점	-11200
▁옥중	-11201
▁옹산	-11202
▁와전	-11203
▁왔어	-11204
▁우월	-11205
▁우파	-11206
▁울다	-11207
▁울린	-11208
▁원작	-11209
▁원준	-11210
▁유난	-11211
▁유빈	-11212
▁의식	-11213
▁이겨	-11214
▁이끌	-11215
▁이민	-11216
▁이행	-11217
▁일도	-11218
▁일이	-11219
▁입주	-11220
▁자료	-11221
▁자제	-11222
▁자처	-11223
▁작업	-11224
▁잘됐	-11225
▁잠잠	-11226
▁잡고	-11227
▁장가	-11228
▁재기	-11229
▁재방	-11230
▁저래	-11231
▁저랬	-11232
▁전라	-11233
▁전체	-11234
▁정우	-11235
▁정의	-11236
▁정확	-11237
▁조신	-11238
▁조아	-11239
▁존예	-11240
▁좀비	-11241
▁종특	-11242
▁좋네	-11243
▁좌좀	-11244
▁주먹	-11245
▁주면	-11246
▁죽여	-11247
▁지럴	-11248
▁지하	-11249
▁짜장	-11250
▁짠한	-11251
▁찍는	-11252
▁차장	-11253
▁착각	-11254
▁찬물	-11255
▁찾았	-11256
▁처리	-11257
▁처먹	-11258
▁천막	-11259
▁첫째	-11260
▁초대	-11261
▁최씨	-11262
▁최율	-11263
▁충만	-11264
▁충재	-11265
▁취급	-11266
▁취식	-11267
▁치고	-11268
▁치빈	-11269
▁침해	-11270
▁카이	-11271
▁커리	-11272
▁커피	-11273
▁쾌조	-11274
▁키작	-11275
▁키즈	-11276
▁타령	-11277
▁타임	-11278
▁태연	-11279
▁터질	-11280
▁통통	-11281
▁특정	-11282
▁팀이	-11283
▁팬티	-11284
▁포장	-11285
▁폭망	-11286
▁피곤	-11287
▁피한	-11288
▁필연	-11289
▁하라	-11290
▁학당	-11291
▁한걸	-11292
▁한도	-11293
▁한때	-11294
▁한식	-11295
▁한창	-11296
▁한채	-11297
▁한표	-11298
▁할리	-11299
▁할매	-11300
▁할일	-11301
▁핫한	-11302
▁해고	-11303
▁해보	-11304
▁해투	-11305
▁했음	-11306
▁현주	-11307
▁협찬	-11308
▁혜나	-11309
▁혜박	-11310
▁혜진	-11311
▁홍주	-11312
▁화끈	-11313
▁화백	-11314
▁화풀	-11315
▁환영	-11316
▁휴가	-11317
▁흘러	-11318
가면서	-11319
가문의	-11320
가슴이	-11321
가족들	-11322
갑니다	-11323
갔으면	-11324
강용석	-11325
같아서	-11326
거같아	-11327
걸그룹	-11328
것같음	-11329
게스트	-11330
겠다는	-11331
경솔한	-11332
고원희	-11333
곡으로	-11334
곳에서	-11335
공원서	-11336
곽시양	-11337
관오리	-11338
관왕에	-11339
구원파	-11340
국과수	-11341
긋지긋	-11342
김경란	-11343
김규종	-11344
김민영	-11345
김소희	-11346
김수용	-11347
김충재	-11348
김현주	-11349
까지는	-11350
끝없이	-11351
나라는	-11352
나연이	-11353
나인룸	-11354
난다면	-11355
날씨가	-11356
남자는	-11357
남자를	-11358
내리는	-11359
네ᄏᄏ	-11360
년동안	-11361
노무현	-11362
놈들이	-11363
눈물의	-11364
당당맨	-11365
당당한	-11366
당분간	-11367
더라도	-11368
도깨비	-11369
동료로	-11370
동명이	-11371
들끼리	-11372
들이냐	-11373
들이라	-11374
들인가	-11375
등사위	-11376
디슈트	-11377
따뜻한	-11378
라인이	-11379
랜드서	-11380
렸지만	-11381
례없는	-11382
류이호	-11383
리면서	-11384
리아의	-11385
릴려고	-11386
마마무	-11387
마미손	-11388
마트에	-11389
만들어	-11390
만해도	-11391
맛있어	-11392
명백한	-11393
명이서	-11394
명호와	-11395
모티콘	-11396
못하고	-11397
무조건	-11398
무지개	-11399
미성년	-11400
미소가	-11401
미안해	-11402
미코의	-11403
바가지	-11404
박성웅	-11405
박연수	-11406
박은혜	-11407
박일서	-11408
박정아	-11409
반민정	-11410
배용준	-11411
버렸네	-11412
베드신	-11413
보려고	-11414
보여서	-11415
보이네	-11416
보좌관	-11417
복숭아	-11418
부도의	-11419
부인과	-11420
불륜남	-11421
사랑한	-11422
사장의	-11423
살인마	-11424
새출발	-11425
서주원	-11426
서효림	-11427
설계자	-11428
세리의	-11429
섹시미	-11430
손담비	-11431
손수현	-11432
솔직히	-11433
송강호	-11434
수많은	-11435
스러웠	-11436
스픽쳐	-11437
슬픔에	-11438
시간에	-11439
시네요	-11440
시켜야	-11441
신난다	-11442
신인상	-11443
심혜진	-11444
쓰지마	-11445
아찔한	-11446
악플러	-11447
안검하	-11448
안되는	-11449
안비밀	-11450
안하면	-11451
안희연	-11452
암동의	-11453
앵무새	-11454
어나와	-11455
어바웃	-11456
얼굴은	-11457
없네요	-11458
없지만	-11459
에이스	-11460
엑스원	-11461
여진구	-11462
연락처	-11463
열등감	-11464
예쁘다	-11465
예서의	-11466
예은도	-11467
오달수	-11468
오윤아	-11469
옥탑방	-11470
요가에	-11471
용됐다	-11472
우만기	-11473
우슬혜	-11474
위안부	-11475
유병재	-11476
유족과	-11477
윤서인	-11478
윤정희	-11479
음담패	-11480
이미자	-11481
이상아	-11482
이상의	-11483
이세진	-11484
이순재	-11485
이영자	-11486
이정은	-11487
이주승	-11488
이채연	-11489
이하율	-11490
이해가	-11491
이현경	-11492
이혜정	-11493
인교진	-11494
인으로	-11495
인지는	-11496
일진설	-11497
임원희	-11498
임지연	-11499
임지현	-11500
있다고	-11501
있던데	-11502
장신영	-11503
재반박	-11504
점에서	-11505
정도면	-11506
정미애	-11507
정유나	-11508
제작에	-11509
졌으면	-11510
조병규	-11511
조여정	-11512
조정석	-11513
좋은데	-11514
주병진	-11515
중에도	-11516
지금의	-11517
지는거	-11518
지는데	-11519
지도않	-11520
지들은	-11521
지않은	-11522
지않음	-11523
지에서	-11524
지현우	-11525
진실은	-11526
질심사	-11527
짝사랑	-11528
차유람	-11529
창시절	-11530
추사랑	-11531
치는데	-11532
코카인	-11533
태어날	-11534
토크몬	-11535
투게더	-11536
트러플	-11537
트리플	-11538
패키지	-11539
팬미팅	-11540
팬선물	-11541
평범한	-11542
평온한	-11543
포스터	-11544
포커스	-11545
하구만	-11546
하기도	-11547
하는듯	-11548
하리수	-11549
하시지	-11550
하실듯	-11551
하지말	-11552
한거같	-11553
한거냐	-11554
한건데	-11555
한수민	-11556
한테도	-11557
한테만	-11558
해주면	-11559
해줘서	-11560
했다가	-11561
했으니	-11562
허양임	-11563
화사야	-11564
활동가	-11565
""('	-11566
2019	-11567
2020	-11568
?"""	-11569
?..2	-11570
Lone	-11571
MAMA	-11572
▁""7	-11573
▁'♡'	-11574
▁108	-11575
▁184	-11576
▁NAT	-11577
▁kbs	-11578
▁→10	-11579
▁가능한	-11580
▁가시화	-11581
▁가야지	-11582
▁갑니다	-11583
▁강경준	-11584
▁강림한	-11585
▁강신일	-11586
▁개극혐	-11587
▁걱정이	-11588
▁건축학	-11589
▁격리설	-11590
▁겹경사	-11591
▁계속된	-11592
▁고마움	-11593
▁공개는	-11594
▁공로상	-11595
▁공인이	-11596
▁곽부성	-11597
▁구설수	-11598
▁군대나	-11599
▁군대안	-11600
▁그녀는	-11601
▁그녀석	-11602
▁그니까	-11603
▁그러다	-11604
▁그런건	-11605
▁그만들	-11606
▁그만큼	-11607
▁그만해	-11608
▁금수저	-11609
▁기사내	-11610
▁김국진	-11611
▁김민준	-11612
▁김세연	-11613
▁김우석	-11614
▁김유석	-11615
▁김지훈	-11616
▁김진아	-11617
▁김진우	-11618
▁김혜자	-11619
▁김희철	-11620
▁꺼져라	-11621
▁끌어낸	-11622
▁나가면	-11623
▁나가서	-11624
▁나래바	-11625
▁나설까	-11626
▁난리냐	-11627
▁난리임	-11628
▁남달랐	-11629
▁남았다	-11630
▁남이사	-11631
▁남자를	-11632
▁남주는	-11633
▁넘는다	-11634
▁넘었다	-11635
▁넘으면	-11636
▁누구나	-11637
▁눈물에	-11638
▁능력이	-11639
▁다니엘	-11640
▁다르게	-11641
▁단발로	-11642
▁단톡서	-11643
▁달달한	-11644
▁당신은	-11645
▁대장정	-11646
▁대표님	-11647
▁대해서	-11648
▁댓글은	-11649
▁더러워	-11650
▁더럽다	-11651
▁덩어리	-11652
▁데뷔곡	-11653
▁도상국	-11654
▁도전기	-11655
▁도티랑	-11656
▁독됐나	-11657
▁돈으로	-11658
▁동료들	-11659
▁동료일	-11660
▁동시간	-11661
▁되는데	-11662
▁되살아	-11663
▁된다면	-11664
▁될텐데	-11665
▁둘러싼	-11666
▁둘째는	-11667
▁뒤늦은	-11668
▁뒤에서	-11669
▁들어갈	-11670
▁따랐을	-11671
▁따지면	-11672
▁딱봐도	-11673
▁때아닌	-11674
▁똑같네	-11675
▁띄워주	-11676
▁런닝맨	-11677
▁레드카	-11678
▁루머도	-11679
▁리더십	-11680
▁리원과	-11681
▁마닷이	-11682
▁마동석	-11683
▁마인드	-11684
▁마침표	-11685
▁만나라	-11686
▁만남의	-11687
▁많았다	-11688
▁말하면	-11689
▁말하지	-11690
▁맛있는	-11691
▁맞아야	-11692
▁머리는	-11693
▁멋있고	-11694
▁메인에	-11695
▁멘트에	-11696
▁모두가	-11697
▁모르나	-11698
▁몰라서	-11699
▁몰려오	-11700
▁몰입도	-11701
▁몸매는	-11702
▁못생김	-11703
▁못하면	-11704
▁무서운	-11705
▁문소리	-11706
▁물어보	-11707
▁뭔잘못	-11708
▁민혜연	-11709
▁믿어요	-11710
▁믿었던	-11711
▁바꿔라	-11712
▁바란다	-11713
▁바치는	-11714
▁박해수	-11715
▁박혜경	-11716
▁반박에	-11717
▁반응에	-11718
▁발표한	-11719
▁방구석	-11720
▁방탄이	-11721
▁배려석	-11722
▁배수지	-11723
▁버리고	-11724
▁범죄를	-11725
▁베테랑	-11726
▁병문안	-11727
▁보는데	-11728
▁본인도	-11729
▁본인은	-11730
▁봅니다	-11731
▁봉태규	-11732
▁부럽네	-11733
▁부모에	-11734
▁부부가	-11735
▁불륜녀	-11736
▁불쌍해	-11737
▁불이행	-11738
▁브루노	-11739
▁빅매치	-11740
▁빼닮은	-11741
▁뺑소니	-11742
▁사귀면	-11743
▁사죄와	-11744
▁사줄게	-11745
▁사진에	-11746
▁사투리	-11747
▁산으로	-11748
▁살아있	-11749
▁생각을	-11750
▁생겨서	-11751
▁생기면	-11752
▁서현숙	-11753
▁선택에	-11754
▁설리가	-11755
▁성격차	-11756
▁성장할	-11757
▁성차별	-11758
▁성형을	-11759
▁세상이	-11760
▁속상해	-11761
▁손은서	-11762
▁송유빈	-11763
▁수퍼비	-11764
▁술자리	-11765
▁숨겨진	-11766
▁스브스	-11767
▁스크린	-11768
▁시리즈	-11769
▁식당서	-11770
▁식으로	-11771
▁신영수	-11772
▁신호탄	-11773
▁싫은데	-11774
▁심하게	-11775
▁싶어요	-11776
▁싸이와	-11777
▁쌍꺼풀	-11778
▁아까움	-11779
▁아내와	-11780
▁아니길	-11781
▁아니었	-11782
▁아니죠	-11783
▁아닌것	-11784
▁아동에	-11785
▁아름답	-11786
▁아무나	-11787
▁아이디	-11788
▁아이와	-11789
▁안봐도	-11790
▁안연홍	-11791
▁안재환	-11792
▁안좋은	-11793
▁안한지	-11794
▁않고파	-11795
▁않나요	-11796
▁않았다	-11797
▁알아봐	-11798
▁알았네	-11799
▁앞두고	-11800
▁애들도	-11801
▁애쓴다	-11802
▁양육권	-11803
▁어디에	-11804
▁어려울	-11805
▁엄마를	-11806
▁없는거	-11807
▁없는지	-11808
▁엑소가	-11809
▁옆자리	-11810
▁오글거	-11811
▁완성한	-11812
▁왜이래	-11813
▁왜저래	-11814
▁외제차	-11815
▁욕먹는	-11816
▁우도환	-11817
▁울고갈	-11818
▁웃기고	-11819
▁웃었다	-11820
▁웃음꽃	-11821
▁원나잇	-11822
▁원하는	-11823
▁월화극	-11824
▁위기의	-11825
▁위기종	-11826
▁유부남	-11827
▁유승호	-11828
▁유출한	-11829
▁유희열	-11830
▁육중완	-11831
▁윤지성	-11832
▁이것도	-11833
▁이경진	-11834
▁이때다	-11835
▁이런글	-11836
▁이런데	-11837
▁이름을	-11838
▁이름이	-11839
▁이명우	-11840
▁이뻐서	-11841
▁이쁜거	-11842
▁이쁜척	-11843
▁이사람	-11844
▁이상우	-11845
▁이선희	-11846
▁이성욱	-11847
▁이승주	-11848
▁이승훈	-11849
▁이유로	-11850
▁이유를	-11851
▁이지아	-11852
▁이커플	-11853
▁이혼에	-11854
▁인간이	-11855
▁인기도	-11856
▁인생은	-11857
▁인성도	-11858
▁임신이	-11859
▁임예진	-11860
▁임지연	-11861
▁있다는	-11862
▁자랑도	-11863
▁자살을	-11864
▁자상한	-11865
▁자식들	-11866
▁자식은	-11867
▁자태로	-11868
▁자한당	-11869
▁잘하셨	-11870
▁잘한다	-11871
▁잠들길	-11872
▁장례식	-11873
▁장성규	-11874
▁재반격	-11875
▁재반박	-11876
▁재수사	-11877
▁저러고	-11878
▁적어도	-11879
▁전사자	-11880
▁정도는	-11881
▁정소민	-11882
▁종지부	-11883
▁좋겠네	-11884
▁좋겠어	-11885
▁좋겠음	-11886
▁죽였나	-11887
▁죽음에	-11888
▁중간에	-11889
▁지겨워	-11890
▁지금껏	-11891
▁지내고	-11892
▁지적에	-11893
▁직업이	-11894
▁진실성	-11895
▁질린다	-11896
▁짐꾼은	-11897
▁찍어서	-11898
▁차이로	-11899
▁참가자	-11900
▁찾아가	-11901
▁채시라	-11902
▁채연에	-11903
▁채우나	-11904
▁청와대	-11905
▁초기화	-11906
▁초상권	-11907
▁최선의	-11908
▁최소한	-11909
▁최영수	-11910
▁축하에	-11911
▁출연진	-11912
▁취재진	-11913
▁치명상	-11914
▁친화력	-11915
▁커플의	-11916
▁키크고	-11917
▁타이틀	-11918
▁타히티	-11919
▁탄생기	-11920
▁패션계	-11921
▁페트리	-11922
▁편지에	-11923
▁평소에	-11924
▁폭로에	-11925
▁폭로전	-11926
▁풀리지	-11927
▁프리즘	-11928
▁필요해	-11929
▁하교길	-11930
▁하나가	-11931
▁하던데	-11932
▁하루만	-11933
▁하선호	-11934
▁하시는	-11935
▁하은과	-11936
▁하현우	-11937
▁한국은	-11938
▁한명도	-11939
▁한상일	-11940
▁했다는	-11941
▁행복을	-11942
▁행복해	-11943
▁향했다	-11944
▁헤어지	-11945
▁현명한	-11946
▁현빈은	-11947
▁현실은	-11948
▁현아가	-11949
▁호들갑	-11950
▁호텔과	-11951
▁확산된	-11952
▁황금빛	-11953
▁황태경	-11954
▁효과로	-11955
▁후드티	-11956
▁후보도	-11957
▁후에도	-11958
▁후임은	-11959
▁힘들다	-11960
가을겨울	-11961
같은소리	-11962
개그우먼	-11963
개미지옥	-11964
건물주가	-11965
것같아요	-11966
결혼할까	-11967
경사났네	-11968
고군분투	-11969
공개열애	-11970
공익신고	-11971
관심폭증	-11972
궁민남편	-11973
김동준은	-11974
김영희와	-11975
김의성은	-11976
김창환의	-11977
노래자랑	-11978
놀랍도록	-11979
눈물사죄	-11980
뉴논스톱	-11981
는거보니	-11982
대질조사	-11983
더라구요	-11984
동명이인	-11985
마약혐의	-11986
맞고소할	-11987
무비박스	-11988
무사입대	-11989
무엇이든	-11990
문재인씨	-11991
미인대회	-11992
미코딸들	-11993
반전매력	-11994
방송재개	-11995
배가본드	-11996
배틀트립	-11997
백년손님	-11998
법적조치	-11999
베르테르	-12000
보니하니	-12001
볼때마다	-12002
부끄럽고	-12003
불법영업	-12004
불쌍하다	-12005
사과한다	-12006
사람한테	-12007
사생결단	-12008
사이즈로	-12009
사이코메	-12010
사장님은	-12011
서수연과	-12012
서슬퍼런	-12013
소환조사	-12014
속도위반	-12015
송윤아와	-12016
시선강간	-12017
신혼이라	-12018
아니라고	-12019
안마의자	-12020
았습니다	-12021
엑스엑스	-12022
연예인들	-12023
연예인이	-12024
예능대부	-12025
예비엄마	-12026
예전부터	-12027
옥탑방의	-12028
원포인트	-12029
이모티콘	-12030
이유있는	-12031
이정은이	-12032
이틀만에	-12033
인간으로	-12034
입장에서	-12035
장모재혼	-12036
전성기에	-12037
전현무의	-12038
정밀검사	-12039
죄스러운	-12040
중학교때	-12041
진실게임	-12042
진영이와	-12043
첫방부터	-12044
추석에도	-12045
출국금지	-12046
크리스탈	-12047
키드밀리	-12048
탈모고백	-12049
태국여행	-12050
파도파도	-12051
피아노의	-12052
피해자만	-12053
하겠지만	-12054
하늘에서	-12055
하자있는	-12056
해보이고	-12057
해서라도	-12058
휴대전화	-12059
'..""	-12060
'...1	-12061
...13	-12062
...23	-12063
...25	-12064
...32	-12065
...4%	-12066
]""20	-12067
▁""20	-12068
▁""51	-12069
▁"“52	-12070
▁'111	-12071
▁100%	-12072
▁777'	-12073
▁>>>>	-12074
▁Life	-12075
▁가지가지	-12076
▁간이검사	-12077
▁감동하는	-12078
▁감량으로	-12079
▁감사하고	-12080
▁감성으로	-12081
▁같습니다	-12082
▁거침없는	-12083
▁건강하게	-12084
▁결혼반지	-12085
▁결혼발표	-12086
▁경찰출석	-12087
▁고생하다	-12088
▁공개까지	-12089
▁공개하고	-12090
▁구혜선씨	-12091
▁귀환으로	-12092
▁그러니까	-12093
▁그렇다고	-12094
▁그룹명은	-12095
▁극복하고	-12096
▁극복할까	-12097
▁금연해도	-12098
▁기어나와	-12099
▁기자들이	-12100
▁김태리와	-12101
▁끼리끼리	-12102
▁나왔는데	-12103
▁나이많은	-12104
▁남녀혐오	-12105
▁노력해서	-12106
▁눈물사과	-12107
▁다시봐도	-12108
▁도박논란	-12109
▁도전이라	-12110
▁돌잔치도	-12111
▁동반출연	-12112
▁드라마나	-12113
▁드라마에	-12114
▁드러나는	-12115
▁따라쟁이	-12116
▁래퍼들의	-12117
▁리드보컬	-12118
▁마린보이	-12119
▁마이애미	-12120
▁만나세요	-12121
▁많으니까	-12122
▁많을텐데	-12123
▁맞붙었다	-12124
▁면목없다	-12125
▁목소리는	-12126
▁몰려와서	-12127
▁무단이탈	-12128
▁문제아들	-12129
▁물들였다	-12130
▁믿기힘든	-12131
▁바이올린	-12132
▁박명수는	-12133
▁박사장의	-12134
▁박은혜에	-12135
▁반대했다	-12136
▁반려견과	-12137
▁발달장애	-12138
▁방송출연	-12139
▁배신자야	-12140
▁배신하고	-12141
▁백세리의	-12142
▁벌써부터	-12143
▁보고싶은	-12144
▁보디수트	-12145
▁복귀하나	-12146
▁본적없는	-12147
▁부담보다	-12148
▁부러워서	-12149
▁부모님도	-12150
▁부적절한	-12151
▁부친상에	-12152
▁비아이와	-12153
▁비주얼이	-12154
▁빼들었다	-12155
▁뿌리치고	-12156
▁사과에도	-12157
▁사귀는거	-12158
▁사라졌다	-12159
▁사랑하는	-12160
▁사실인가	-12161
▁생각하고	-12162
▁생각하면	-12163
▁생각하지	-12164
▁생각했다	-12165
▁서현진을	-12166
▁선곡하며	-12167
▁설왕설래	-12168
▁성상품화	-12169
▁성적순이	-12170
▁솔로데뷔	-12171
▁솔직달콤	-12172
▁솔직해서	-12173
▁송중기가	-12174
▁스타디움	-12175
▁시선강탈	-12176
▁시아버지	-12177
▁시원했냐	-12178
▁시작부터	-12179
▁시작했다	-12180
▁신혼부부	-12181
▁싶었는데	-12182
▁아내위해	-12183
▁아니겠지	-12184
▁아버지가	-12185
▁안검하수	-12186
▁안나오는	-12187
▁안도하고	-12188
▁안봤는데	-12189
▁안타깝게	-12190
▁알아보시	-12191
▁알아봤다	-12192
▁야노시호	-12193
▁어지간히	-12194
▁여자였다	-12195
▁여장남자	-12196
▁열애공개	-12197
▁열어놓고	-12198
▁염정아의	-12199
▁예쁘네요	-12200
▁오래오래	-12201
▁오랜만에	-12202
▁옷이길래	-12203
▁우려까지	-12204
▁원스픽쳐	-12205
▁유일하게	-12206
▁유재석이	-12207
▁응원하고	-12208
▁의미였나	-12209
▁의심하기	-12210
▁이뻤는데	-12211
▁이서원은	-12212
▁이유있는	-12213
▁이혼해도	-12214
▁인스타에	-12215
▁일어나지	-12216
▁있으니까	-12217
▁잊지않고	-12218
▁자연임신	-12219
▁잘못한거	-12220
▁잘하는데	-12221
▁잘하세요	-12222
▁장나라에	-12223
▁장도연의	-12224
▁장재인은	-12225
▁장화사야	-12226
▁재미없음	-12227
▁재밌는데	-12228
▁전면취소	-12229
▁정명호와	-12230
▁조심해라	-12231
▁조심해야	-12232
▁조여정의	-12233
▁조윤희에	-12234
▁조인성에	-12235
▁졸업사진	-12236
▁주진모의	-12237
▁죽였어야	-12238
▁중국에서	-12239
▁지긋지긋	-12240
▁지인들도	-12241
▁지켜봤다	-12242
▁질투하는	-12243
▁짜장라면	-12244
▁찢어진다	-12245
▁책임일까	-12246
▁천막이야	-12247
▁천만까지	-12248
▁천만원에	-12249
▁키즈카페	-12250
▁타임라인	-12251
▁태어나요	-12252
▁톱스타도	-12253
▁평범하게	-12254
▁표정으로	-12255
▁필연커플	-12256
▁하더라도	-12257
▁하드캐리	-12258
▁하차키로	-12259
▁하차해라	-12260
▁한남들아	-12261
▁한혜진의	-12262
▁해명까지	-12263
▁행복먹방	-12264
▁헤어지면	-12265
▁홍주은양	-12266
▁홍진영에	-12267
▁홍콩여행	-12268
▁힘들다고	-12269
나의아저씨	-12270
러브스토리	-12271
미스코리아	-12272
반일활동가	-12273
비긴어게인	-12274
쇼미더머니	-12275
싱글와이프	-12276
악성림프종	-12277
안검하수가	-12278
안비밀연애	-12279
양자물리학	-12280
어바웃타임	-12281
이슈메이커	-12282
일억개의별	-12283
커플운동화	-12284
하겠습니다	-12285
해피투게더	-12286
)'...1	-12287
..""10	-12288
Lonely	-12289
]'2019	-12290
~~~~~~	-12291
▁"""19	-12292
▁'2018	-12293
▁[2018	-12294
▁감사합니다	-12295
▁고생했는데	-12296
▁고양이상의	-12297
▁김도훈까지	-12298
▁김현주에게	-12299
▁까멜리아의	-12300
▁나오지마라	-12301
▁남녀신인상	-12302
▁다이어트는	-12303
▁독립운동가	-12304
▁뒤집어놓은	-12305
▁떠나보낸다	-12306
▁막내라인이	-12307
▁메인포스터	-12308
▁바로잡겠다	-12309
▁보여주고파	-12310
▁살겠습니다	-12311
▁선택이었다	-12312
▁싫어합니다	-12313
▁안타깝네요	-12314
▁여행설계자	-12315
▁유재석에게	-12316
▁일방적으로	-12317
▁자연스럽게	-12318
▁잘생겼는데	-12319
▁장나라까지	-12320
▁조심하세요	-12321
▁청룡영화상	-12322
▁최강사랑꾼	-12323
▁프로듀서도	-12324
▁해외팬미팅	-12325
관오리에게는	-12326
눈물사죄했던	-12327
디즈니랜드서	-12328
로맨스패키지	-12329
사이코메트리	-12330
여름가을겨울	-12331
""..'31	-12332
...""17	-12333
...""85	-12334
ᅲᅲᅲᅲᅲᅲᅲ	-12335
”...‘28	-12336
▁NATION	-12337
▁용서해주시길	-12338
▁축하드립니다	-12339
하늘에서내리는	-12340
...32.6%	-12341
▁알아보시겠어요	-12342
ᄏᄏᄏᄏᄏᄏᄏᄏᄏ	-12343
하늘에서내리는일억개의별	-12344
'-	-12345
(8	-12346
.9	-12347
0%	-12348
43	-12349
4’	-12350
50	-12351
5’	-12352
80	-12353
CJ	-12354
GG	-12355
LL	-12356
No	-12357
an	-12358
co	-12359
ou	-12360
ww	-12361
xx	-12362
~♡	-12363
ᄅᄀ	-12364
ᄋᄋ	-12365
ᄐᄐ	-12366
ᆞᆞ	-12367
↑+	-12368
→♥	-12369
▁0	-12370
▁G	-12371
▁^	-12372
▁p	-12373
▁u	-12374
▁ᄅ	-12375
▁깝	-12376
▁냉	-12377
▁녀	-12378
▁댁	-12379
▁댓	-12380
▁듬	-12381
▁벤	-12382
▁뿔	-12383
▁슴	-12384
▁욱	-12385
▁젠	-12386
▁졌	-12387
▁족	-12388
▁째	-12389
▁쳤	-12390
▁플	-12391
♥”	-12392
가가	-12393
가연	-12394
가정	-12395
각이	-12396
거미	-12397
건후	-12398
걸이	-12399
것네	-12400
것은	-12401
것임	-12402
것지	-12403
게릴	-12404
겟네	-12405
겠나	-12406
겠음	-12407
격려	-12408
결은	-12409
겼다	-12410
겼음	-12411
경과	-12412
계를	-12413
계상	-12414
계의	-12415
고가	-12416
고기	-12417
고로	-12418
고루	-12419
골탈	-12420
곳이	-12421
공인	-12422
공해	-12423
공허	-12424
관이	-12425
구려	-12426
구리	-12427
구준	-12428
권다	-12429
그게	-12430
그라	-12431
그알	-12432
극단	-12433
급도	-12434
급이	-12435
기획	-12436
김소	-12437
김송	-12438
깜놀	-12439
꺼야	-12440
께서	-12441
끌어	-12442
나들	-12443
남의	-12444
내내	-12445
내며	-12446
내면	-12447
내요	-12448
내조	-12449
냈던	-12450
너를	-12451
너지	-12452
네ᄏ	-12453
네는	-12454
녹취	-12455
놈은	-12456
농염	-12457
놓구	-12458
느끼	-12459
는가	-12460
능적	-12461
다르	-12462
다섯	-12463
당시	-12464
당이	-12465
당할	-12466
대고	-12467
대구	-12468
대니	-12469
덕스	-12470
덕지	-12471
덕철	-12472
데미	-12473
데요	-12474
도리	-12475
돈이	-12476
돌연	-12477
동국	-12478
됐고	-12479
되니	-12480
되요	-12481
뒤에	-12482
뒷바	-12483
때매	-12484
때메	-12485
뜨는	-12486
뜨렸	-12487
랑곳	-12488
럽네	-12489
렇지	-12490
려나	-12491
력위	-12492
렴치	-12493
렵고	-12494
렸을	-12495
로별	-12496
론도	-12497
롭다	-12498
루설	-12499
루키	-12500
르셋	-12501
르크	-12502
를린	-12503
리기	-12504
리나	-12505
린듯	-12506
마니	-12507
마라	-12508
마자	-12509
막음	-12510
만드	-12511
말에	-12512
말을	-12513
맘에	-12514
망스	-12515
망주	-12516
맥집	-12517
먹네	-12518
먼지	-12519
면에	-12520
명반	-12521
명설	-12522
명일	-12523
모가	-12524
모로	-12525
무강	-12526
무당	-12527
무라	-12528
무시	-12529
문복	-12530
물론	-12531
물에	-12532
미연	-12533
미의	-12534
믿고	-12535
바울	-12536
바지	-12537
반찬	-12538
밥집	-12539
배기	-12540
뱀뱀	-12541
버그	-12542
병이	-12543
복스	-12544
본적	-12545
봉사	-12546
봉쇄	-12547
부다	-12548
분모	-12549
비누	-12550
빈소	-12551
빡구	-12552
뿔난	-12553
사냐	-12554
사에	-12555
사한	-12556
살고	-12557
살기	-12558
살찐	-12559
상대	-12560
상표	-12561
상호	-12562
생에	-12563
생을	-12564
서빈	-12565
서야	-12566
서정	-12567
서현	-12568
선비	-12569
선임	-12570
설아	-12571
설의	-12572
섭외	-12573
성한	-12574
세가	-12575
세여	-12576
섹남	-12577
셔도	-12578
셨다	-12579
셨음	-12580
속보	-12581
수갑	-12582
수야	-12583
수치	-12584
숙소	-12585
순풍	-12586
술에	-12587
스탈	-12588
슬램	-12589
시나	-12590
신부	-12591
싫음	-12592
심경	-12593
싸고	-12594
써서	-12595
씨구	-12596
아녀	-12597
아닐	-12598
아래	-12599
아파	-12600
안탈	-12601
않은	-12602
알아	-12603
았고	-12604
았어	-12605
았을	-12606
았지	-12607
애는	-12608
야키	-12609
양가	-12610
어딜	-12611
어이	-12612
억대	-12613
얼짱	-12614
없나	-12615
었죠	-12616
에버	-12617
여살	-12618
역이	-12619
연다	-12620
연히	-12621
였고	-12622
영도	-12623
예뻐	-12624
오냐	-12625
오른	-12626
오버	-12627
옥문	-12628
온거	-12629
온마	-12630
왕색	-12631
요리	-12632
요환	-12633
욕먹	-12634
욕을	-12635
용진	-12636
용히	-12637
울꺼	-12638
움이	-12639
웃긴	-12640
원도	-12641
원에	-12642
원준	-12643
웠나	-12644
위올	-12645
위적	-12646
윙스	-12647
유감	-12648
유민	-12649
유혜	-12650
육씨	-12651
을지	-12652
이것	-12653
이노	-12654
이본	-12655
이쓴	-12656
이후	-12657
인게	-12658
인과	-12659
인중	-12660
일상	-12661
일지	-12662
임을	-12663
입학	-12664
자도	-12665
작별	-12666
잘하	-12667
장실	-12668
장악	-12669
장을	-12670
장준	-12671
재윤	-12672
저럼	-12673
저히	-12674
적은	-12675
전라	-12676
전원	-12677
점의	-12678
정돈	-12679
정리	-12680
정보	-12681
제거	-12682
제천	-12683
졌음	-12684
족쇄	-12685
존재	-12686
졸리	-12687
종진	-12688
좋음	-12689
죄로	-12690
죄를	-12691
죄송	-12692
주시	-12693
주제	-12694
주회	-12695
준게	-12696
줄은	-12697
중독	-12698
줘도	-12699
쥬얼	-12700
증후	-12701
지로	-12702
지를	-12703
지심	-12704
지어	-12705
지좀	-12706
지키	-12707
진않	-12708
진지	-12709
집을	-12710
집중	-12711
집착	-12712
짓고	-12713
짓만	-12714
징그	-12715
짜피	-12716
짱맨	-12717
참지	-12718
챙겨	-12719
천재	-12720
추기	-12721
출신	-12722
출원	-12723
충전	-12724
치다	-12725
치던	-12726
커프	-12727
코가	-12728
쾌한	-12729
키즈	-12730
키호	-12731
타와	-12732
태관	-12733
투루	-12734
티파	-12735
팀목	-12736
팅힐	-12737
판에	-12738
판타	-12739
포털	-12740
프가	-12741
피쉬	-12742
픽미	-12743
하랑	-12744
하림	-12745
하와	-12746
한것	-12747
한명	-12748
할만	-12749
해먹	-12750
해봐	-12751
해줍	-12752
햇다	-12753
했죠	-12754
허그	-12755
허설	-12756
혁은	-12757
현영	-12758
혼한	-12759
화가	-12760
환호	-12761
회동	-12762
회만	-12763
회에	-12764
효섭	-12765
""'	-12766
(14	-12767
(17	-12768
(19	-12769
(29	-12770
,10	-12771
..#	-12772
..,	-12773
..“	-12774
6.9	-12775
PMA	-12776
]'8	-12777
com	-12778
ᅮᅮᅮ	-12779
”[★	-12780
→32	-12781
→70	-12782
▁5.	-12783
▁80	-12784
▁82	-12785
▁86	-12786
▁MT	-12787
▁Oh	-12788
▁bt	-12789
▁sm	-12790
▁가관	-12791
▁가끔	-12792
▁가로	-12793
▁가만	-12794
▁가벼	-12795
▁가짜	-12796
▁갈아	-12797
▁감옥	-12798
▁감흥	-12799
▁강타	-12800
▁강형	-12801
▁갖다	-12802
▁같냐	-12803
▁개가	-12804
▁개최	-12805
▁거냐	-12806
▁거미	-12807
▁거절	-12808
▁건가	-12809
▁건장	-12810
▁걷길	-12811
▁걸려	-12812
▁걸릴	-12813
▁검은	-12814
▁것뿐	-12815
▁겨냥	-12816
▁격정	-12817
▁고시	-12818
▁고음	-12819
▁공범	-12820
▁공효	-12821
▁과시	-12822
▁괴어	-12823
▁교만	-12824
▁구걸	-12825
▁국악	-12826
▁국제	-12827
▁국회	-12828
▁그치	-12829
▁글고	-12830
▁급이	-12831
▁기념	-12832
▁기도	-12833
▁김광	-12834
▁김구	-12835
▁김권	-12836
▁깊이	-12837
▁까는	-12838
▁까발	-12839
▁꼬박	-12840
▁꼭지	-12841
▁꿈만	-12842
▁끊고	-12843
▁나같	-12844
▁나비	-12845
▁남성	-12846
▁남양	-12847
▁남이	-12848
▁낫다	-12849
▁낳아	-12850
▁내딸	-12851
▁내리	-12852
▁내보	-12853
▁넘길	-12854
▁넘쳐	-12855
▁넣고	-12856
▁노노	-12857
▁노령	-12858
▁노예	-12859
▁논리	-12860
▁누명	-12861
▁뉴욕	-12862
▁느그	-12863
▁늙음	-12864
▁다신	-12865
▁다야	-12866
▁다친	-12867
▁단계	-12868
▁단순	-12869
▁담요	-12870
▁대리	-12871
▁대사	-12872
▁대수	-12873
▁더러	-12874
▁돈만	-12875
▁돋는	-12876
▁동급	-12877
▁동요	-12878
▁된거	-12879
▁뒤지	-12880
▁든다	-12881
▁등골	-12882
▁디게	-12883
▁따로	-12884
▁따져	-12885
▁딸도	-12886
▁딸은	-12887
▁떠난	-12888
▁떠들	-12889
▁떨고	-12890
▁또라	-12891
▁라는	-12892
▁레즈	-12893
▁루푸	-12894
▁리쌍	-12895
▁마취	-12896
▁마치	-12897
▁막상	-12898
▁만드	-12899
▁만수	-12900
▁말말	-12901
▁망작	-12902
▁망한	-12903
▁망할	-12904
▁맞게	-12905
▁맞을	-12906
▁매입	-12907
▁매장	-12908
▁매주	-12909
▁먹었	-12910
▁먹지	-12911
▁먼가	-12912
▁멋져	-12913
▁명복	-12914
▁몇년	-12915
▁모양	-12916
▁모친	-12917
▁못된	-12918
▁못하	-12919
▁못함	-12920
▁무리	-12921
▁무명	-12922
▁무지	-12923
▁물이	-12924
▁뭐고	-12925
▁뭐임	-12926
▁뮤즈	-12927
▁미세	-12928
▁미쓰	-12929
▁미인	-12930
▁미처	-12931
▁민경	-12932
▁민란	-12933
▁민주	-12934
▁믿어	-12935
▁밀려	-12936
▁받지	-12937
▁발생	-12938
▁방금	-12939
▁방침	-12940
▁버린	-12941
▁벌금	-12942
▁벌받	-12943
▁베댓	-12944
▁벼슬	-12945
▁별개	-12946
▁별걸	-12947
▁별론	-12948
▁병력	-12949
▁보검	-12950
▁보게	-12951
▁보일	-12952
▁보정	-12953
▁볼수	-12954
▁봐요	-12955
▁부상	-12956
▁부실	-12957
▁부추	-12958
▁불안	-12959
▁불청	-12960
▁블로	-12961
▁블핑	-12962
▁비는	-12963
▁빼야	-12964
▁뺏겨	-12965
▁사부	-12966
▁사태	-12967
▁사흘	-12968
▁살자	-12969
▁삼성	-12970
▁상습	-12971
▁새댁	-12972
▁생겨	-12973
▁생화	-12974
▁서막	-12975
▁서유	-12976
▁선미	-12977
▁설아	-12978
▁성욕	-12979
▁성질	-12980
▁소문	-12981
▁소유	-12982
▁손맛	-12983
▁손해	-12984
▁송영	-12985
▁송이	-12986
▁숨어	-12987
▁스노	-12988
▁스엠	-12989
▁승관	-12990
▁승부	-12991
▁신상	-12992
▁실실	-12993
▁실제	-12994
▁실추	-12995
▁심보	-12996
▁심심	-12997
▁심쿵	-12998
▁써라	-12999
▁써주	-13000
▁쓰레	-13001
▁쓰지	-13002
▁아녀	-13003
▁아아	-13004
▁아줌	-13005
▁아카	-13006
▁아플	-13007
▁안감	-13008
▁안내	-13009
▁안됐	-13010
▁안맞	-13011
▁압송	-13012
▁애는	-13013
▁야는	-13014
▁야이	-13015
▁약간	-13016
▁양반	-13017
▁양심	-13018
▁어설	-13019
▁얻은	-13020
▁엄격	-13021
▁업계	-13022
▁여태	-13023
▁연구	-13024
▁영향	-13025
▁영혼	-13026
▁예림	-13027
▁예선	-13028
▁오크	-13029
▁와플	-13030
▁욕한	-13031
▁우와	-13032
▁우익	-13033
▁웃긴	-13034
▁원천	-13035
▁원탑	-13036
▁위너	-13037
▁위상	-13038
▁위태	-13039
▁윤곽	-13040
▁윤채	-13041
▁은근	-13042
▁음원	-13043
▁응답	-13044
▁의외	-13045
▁의학	-13046
▁이나	-13047
▁이년	-13048
▁이단	-13049
▁이라	-13050
▁이왕	-13051
▁인격	-13052
▁인신	-13053
▁인해	-13054
▁일갈	-13055
▁일관	-13056
▁일기	-13057
▁일뽕	-13058
▁일을	-13059
▁일진	-13060
▁일할	-13061
▁입원	-13062
▁자동	-13063
▁자라	-13064
▁자세	-13065
▁자타	-13066
▁작명	-13067
▁잘난	-13068
▁잘들	-13069
▁잘지	-13070
▁잠을	-13071
▁잡다	-13072
▁장남	-13073
▁장담	-13074
▁장모	-13075
▁장어	-13076
▁재산	-13077
▁쟤네	-13078
▁쟤는	-13079
▁저분	-13080
▁적은	-13081
▁전개	-13082
▁전국	-13083
▁전해	-13084
▁절라	-13085
▁정면	-13086
▁정보	-13087
▁정호	-13088
▁조율	-13089
▁조커	-13090
▁조퇴	-13091
▁조합	-13092
▁조회	-13093
▁종결	-13094
▁종교	-13095
▁죄를	-13096
▁죄지	-13097
▁주객	-13098
▁주는	-13099
▁주사	-13100
▁죽는	-13101
▁중기	-13102
▁즐겨	-13103
▁즐기	-13104
▁증발	-13105
▁증오	-13106
▁지겹	-13107
▁지는	-13108
▁지능	-13109
▁지방	-13110
▁지어	-13111
▁진정	-13112
▁징계	-13113
▁징글	-13114
▁짜리	-13115
▁짱깨	-13116
▁차례	-13117
▁차원	-13118
▁착오	-13119
▁착용	-13120
▁참가	-13121
▁참아	-13122
▁처맞	-13123
▁척척	-13124
▁천국	-13125
▁천하	-13126
▁첫회	-13127
▁체질	-13128
▁쳐도	-13129
▁쳐맞	-13130
▁쳐먹	-13131
▁초딩	-13132
▁추잡	-13133
▁출석	-13134
▁카페	-13135
▁쾌차	-13136
▁크고	-13137
▁큰일	-13138
▁탈코	-13139
▁태랑	-13140
▁텐데	-13141
▁토착	-13142
▁통보	-13143
▁투표	-13144
▁트집	-13145
▁파견	-13146
▁판결	-13147
▁판타	-13148
▁팔자	-13149
▁패라	-13150
▁팬도	-13151
▁폭주	-13152
▁플레	-13153
▁피트	-13154
▁필립	-13155
▁핑클	-13156
▁하게	-13157
▁하길	-13158
▁하도	-13159
▁하신	-13160
▁하트	-13161
▁한효	-13162
▁할게	-13163
▁해줄	-13164
▁해줬	-13165
▁했고	-13166
▁향기	-13167
▁향해	-13168
▁허전	-13169
▁허접	-13170
▁허현	-13171
▁호킹	-13172
▁혼외	-13173
▁화목	-13174
▁회동	-13175
▁회신	-13176
▁후에	-13177
▁흥분	-13178
▁희롱	-13179
♥'[	-13180
갈수록	-13181
갈수있	-13182
갑자기	-13183
갔는데	-13184
강동원	-13185
강수지	-13186
강원래	-13187
같은과	-13188
같이걸	-13189
같지도	-13190
거래에	-13191
거면서	-13192
거에요	-13193
거지에	-13194
게되나	-13195
게릴라	-13196
겠구나	-13197
겠구만	-13198
겠더라	-13199
경찰서	-13200
고수정	-13201
고싶고	-13202
고준희	-13203
골탈태	-13204
관종짓	-13205
구준회	-13206
귀하가	-13207
그래요	-13208
그렇고	-13209
극단적	-13210
기적의	-13211
기획실	-13212
긴하다	-13213
긴했어	-13214
김경욱	-13215
김동윤	-13216
김동현	-13217
김명민	-13218
김민경	-13219
김부활	-13220
김소현	-13221
김인석	-13222
김정은	-13223
김주현	-13224
나는데	-13225
나보네	-13226
나봐요	-13227
남동생	-13228
남자가	-13229
냐ᄏᄏ	-13230
년간의	-13231
년들은	-13232
년들의	-13233
년안에	-13234
년차에	-13235
녹취록	-13236
눈부신	-13237
는거죠	-13238
는다고	-13239
다고봄	-13240
다니는	-13241
달달함	-13242
담담한	-13243
답니다	-13244
당하는	-13245
당한거	-13246
대면서	-13247
대성공	-13248
더군요	-13249
데리고	-13250
데이지	-13251
둘째딸	-13252
들보면	-13253
들이지	-13254
들인데	-13255
들하고	-13256
디스에	-13257
따로또	-13258
떨어진	-13259
라미란	-13260
라이트	-13261
랜차이	-13262
랬는데	-13263
려야지	-13264
력위조	-13265
렸어요	-13266
로버트	-13267
루키의	-13268
르크에	-13269
를린서	-13270
리는듯	-13271
마누라	-13272
마시고	-13273
만삭몸	-13274
많은데	-13275
명반병	-13276
모르고	-13277
모습은	-13278
무면허	-13279
문정원	-13280
문채원	-13281
미스티	-13282
바이브	-13283
박주호	-13284
박지성	-13285
방송국	-13286
버리고	-13287
베이비	-13288
보내고	-13289
보니깐	-13290
보라빛	-13291
보여주	-13292
본인이	-13293
봐야지	-13294
봤을때	-13295
부럽다	-13296
부부의	-13297
부분이	-13298
부터는	-13299
불명설	-13300
불후의	-13301
브래드	-13302
비호감	-13303
빈소엔	-13304
빠지고	-13305
사람을	-13306
사랑과	-13307
사재기	-13308
성유리	-13309
성현아	-13310
송하예	-13311
송하율	-13312
순풍산	-13313
스나인	-13314
스럽네	-13315
시상식	-13316
시세끼	-13317
시안은	-13318
시험관	-13319
신세경	-13320
심은진	-13321
심하고	-13322
아깝다	-13323
아랑곳	-13324
아주려	-13325
아직도	-13326
안들어	-13327
안선영	-13328
안좋다	-13329
안한다	-13330
안해도	-13331
암투병	-13332
앞에서	-13333
애들도	-13334
양민석	-13335
양현석	-13336
어있는	-13337
얼굴이	-13338
엄태웅	-13339
었던거	-13340
여성과	-13341
열두달	-13342
염정아	-13343
예능돌	-13344
오는데	-13345
오늘의	-13346
옥주현	-13347
왔는데	-13348
용으로	-13349
우주의	-13350
원에서	-13351
윌까지	-13352
유망주	-13353
유배우	-13354
유재환	-13355
유혜주	-13356
윤은혜	-13357
윤혜진	-13358
으로는	-13359
으시길	-13360
은정과	-13361
은지원	-13362
을거다	-13363
의도한	-13364
이구나	-13365
이나요	-13366
이동국	-13367
이쁘고	-13368
이상민	-13369
이선균	-13370
이수진	-13371
이원준	-13372
이윤지	-13373
이자나	-13374
이정현	-13375
이지성	-13376
이찬오	-13377
이청아	-13378
이틀째	-13379
이희진	-13380
인들은	-13381
인사를	-13382
인지도	-13383
임수향	-13384
임요환	-13385
있으니	-13386
자신에	-13387
잘어울	-13388
장덕철	-13389
장동민	-13390
장재인	-13391
장준환	-13392
저렇게	-13393
전도된	-13394
전설의	-13395
전제품	-13396
정도는	-13397
정선희	-13398
정은채	-13399
정인선	-13400
정하게	-13401
제이쓴	-13402
조수애	-13403
조용히	-13404
조재윤	-13405
조하나	-13406
좀해라	-13407
좋은거	-13408
주기에	-13409
주의보	-13410
쥬라기	-13411
즐거운	-13412
증후군	-13413
지능적	-13414
지던데	-13415
지말자	-13416
지진희	-13417
진것도	-13418
진태현	-13419
집아들	-13420
쪽에서	-13421
차려라	-13422
차세대	-13423
차이가	-13424
차태현	-13425
차현우	-13426
책임감	-13427
천만명	-13428
청순한	-13429
체가진	-13430
쳐먹고	-13431
최민용	-13432
최병길	-13433
코야키	-13434
큰아들	-13435
키호테	-13436
터제거	-13437
통쾌한	-13438
통편집	-13439
티파니	-13440
팝스타	-13441
패왕색	-13442
편안한	-13443
프로포	-13444
피자에	-13445
하냐고	-13446
하다는	-13447
하려는	-13448
하셔서	-13449
하셔요	-13450
하잖아	-13451
한가요	-13452
한건가	-13453
합시다	-13454
해놓고	-13455
햇는데	-13456
했는지	-13457
홍현희	-13458
확실히	-13459
황바울	-13460
...♥	-13461
LOVE	-13462
ᄒᄒᄒᄒ	-13463
→104	-13464
▁""8	-13465
▁"“‘	-13466
▁99%	-13467
▁MMA	-13468
▁jyp	-13469
▁the	-13470
▁~~~	-13471
▁ᄋᄌᄅ	-13472
▁“28	-13473
▁가득한	-13474
▁가수는	-13475
▁가슴이	-13476
▁가시권	-13477
▁가족과	-13478
▁가족에	-13479
▁간미연	-13480
▁간절한	-13481
▁감사히	-13482
▁감정은	-13483
▁강승호	-13484
▁강용석	-13485
▁강유미	-13486
▁갚으며	-13487
▁개실망	-13488
▁건강한	-13489
▁결혼설	-13490
▁결혼축	-13491
▁고민들	-13492
▁고생이	-13493
▁고스트	-13494
▁고은아	-13495
▁공개된	-13496
▁과하게	-13497
▁관상이	-13498
▁관심을	-13499
▁관종짓	-13500
▁괜찮고	-13501
▁교도소	-13502
▁구구단	-13503
▁구원파	-13504
▁국민들	-13505
▁군복무	-13506
▁궁금해	-13507
▁귀여워	-13508
▁그때도	-13509
▁그랜드	-13510
▁그러게	-13511
▁그러네	-13512
▁그정도	-13513
▁기독교	-13514
▁기사도	-13515
▁기억이	-13516
▁김가연	-13517
▁김동명	-13518
▁김래원	-13519
▁김미화	-13520
▁김민서	-13521
▁김민지	-13522
▁김연아	-13523
▁김이지	-13524
▁김준수	-13525
▁김지영	-13526
▁김태욱	-13527
▁깊어진	-13528
▁깊었던	-13529
▁꼴페미	-13530
▁꼽사리	-13531
▁끝인사	-13532
▁나라의	-13533
▁나와야	-13534
▁나왔던	-13535
▁나은데	-13536
▁나이도	-13537
▁나이어	-13538
▁난리난	-13539
▁난리야	-13540
▁난쟁이	-13541
▁남자로	-13542
▁내용은	-13543
▁내용이	-13544
▁냄새가	-13545
▁넘사벽	-13546
▁넘어가	-13547
▁노이즈	-13548
▁노이해	-13549
▁노처녀	-13550
▁노팅힐	-13551
▁논란이	-13552
▁뇌안탈	-13553
▁느끼는	-13554
▁늙어서	-13555
▁니네가	-13556
▁니네는	-13557
▁다니는	-13558
▁다르네	-13559
▁답이지	-13560
▁당신을	-13561
▁당하고	-13562
▁당해도	-13563
▁대상은	-13564
▁대중은	-13565
▁대표와	-13566
▁대화중	-13567
▁더구나	-13568
▁더이상	-13569
▁돌릴까	-13570
▁되겠네	-13571
▁되겠다	-13572
▁될것을	-13573
▁드러낸	-13574
▁드러운	-13575
▁들으면	-13576
▁따돌림	-13577
▁때리고	-13578
▁떨어지	-13579
▁떨어질	-13580
▁또라이	-13581
▁뚱뚱한	-13582
▁띄운다	-13583
▁레전드	-13584
▁로스쿨	-13585
▁류시원	-13586
▁류준열	-13587
▁리얼한	-13588
▁리허설	-13589
▁만나러	-13590
▁만나야	-13591
▁만난적	-13592
▁만들고	-13593
▁많네요	-13594
▁많아요	-13595
▁많으니	-13596
▁많은지	-13597
▁말말말	-13598
▁말아라	-13599
▁맛집에	-13600
▁망해라	-13601
▁맞선다	-13602
▁매덕스	-13603
▁머라고	-13604
▁먹어도	-13605
▁먹으러	-13606
▁멋있는	-13607
▁멤버가	-13608
▁몇번째	-13609
▁몇십억	-13610
▁몰랐던	-13611
▁몸매가	-13612
▁무서워	-13613
▁무슨죄	-13614
▁무표정	-13615
▁묵직한	-13616
▁문의에	-13617
▁문제는	-13618
▁문제지	-13619
▁물오른	-13620
▁뭔가요	-13621
▁미개한	-13622
▁미국서	-13623
▁미나가	-13624
▁미성년	-13625
▁미우새	-13626
▁민간인	-13627
▁민효린	-13628
▁믿기지	-13629
▁바꿔서	-13630
▁바람피	-13631
▁바람핀	-13632
▁박세미	-13633
▁박수홍	-13634
▁박종진	-13635
▁반대로	-13636
▁받는다	-13637
▁발신지	-13638
▁발언을	-13639
▁방문도	-13640
▁방송사	-13641
▁방탄은	-13642
▁배아픈	-13643
▁백허그	-13644
▁버팀목	-13645
▁번아웃	-13646
▁번이나	-13647
▁벗어난	-13648
▁베리굿	-13649
▁변하지	-13650
▁별명일	-13651
▁보니깐	-13652
▁보이지	-13653
▁보증빚	-13654
▁본격화	-13655
▁볼만한	-13656
▁부러운	-13657
▁부부도	-13658
▁부부와	-13659
▁부인이	-13660
▁부인한	-13661
▁부활을	-13662
▁분들께	-13663
▁분명히	-13664
▁불러올	-13665
▁불타는	-13666
▁비결은	-13667
▁비율이	-13668
▁비장의	-13669
▁비쥬얼	-13670
▁비하면	-13671
▁빅피쉬	-13672
▁빚어진	-13673
▁뿐이지	-13674
▁뿔났다	-13675
▁사귀지	-13676
▁사기는	-13677
▁사는게	-13678
▁사람죽	-13679
▁사실을	-13680
▁사용법	-13681
▁사이다	-13682
▁사장에	-13683
▁사진이	-13684
▁산타와	-13685
▁살게요	-13686
▁살겠다	-13687
▁살다가	-13688
▁살림남	-13689
▁살아가	-13690
▁살아도	-13691
▁살찌기	-13692
▁상당히	-13693
▁상대가	-13694
▁상상도	-13695
▁상처받	-13696
▁상표권	-13697
▁상황이	-13698
▁생각남	-13699
▁서유리	-13700
▁선사한	-13701
▁성격도	-13702
▁성은채	-13703
▁세계화	-13704
▁세븐틴	-13705
▁속사정	-13706
▁손담비	-13707
▁손승연	-13708
▁수줍은	-13709
▁수지씨	-13710
▁술먹고	-13711
▁술친구	-13712
▁숨겼다	-13713
▁숨진채	-13714
▁쉬세요	-13715
▁쉬어요	-13716
▁스윙스	-13717
▁스포츠	-13718
▁시간들	-13719
▁시기에	-13720
▁시너지	-13721
▁시대에	-13722
▁시하와	-13723
▁신경쓸	-13724
▁신나서	-13725
▁신정환	-13726
▁실망한	-13727
▁실시간	-13728
▁실종설	-13729
▁싫다고	-13730
▁싫어요	-13731
▁심장병	-13732
▁싶은데	-13733
▁싸구려	-13734
▁쌍천만	-13735
▁아가씨	-13736
▁아니니	-13737
▁아니였	-13738
▁아들맘	-13739
▁아마존	-13740
▁아무튼	-13741
▁아역들	-13742
▁악플은	-13743
▁악플좀	-13744
▁안가고	-13745
▁안가네	-13746
▁안나왔	-13747
▁안되네	-13748
▁안되요	-13749
▁안되죠	-13750
▁안들면	-13751
▁안맞는	-13752
▁안보게	-13753
▁안본다	-13754
▁안봤다	-13755
▁안좋아	-13756
▁안한다	-13757
▁안해본	-13758
▁앉았네	-13759
▁않겠다	-13760
▁않았나	-13761
▁않은데	-13762
▁알겠다	-13763
▁알겠지	-13764
▁알바는	-13765
▁알았음	-13766
▁압도적	-13767
▁얘기가	-13768
▁어떠냐	-13769
▁어려서	-13770
▁어쩌다	-13771
▁어쩐지	-13772
▁어쩔수	-13773
▁억지에	-13774
▁언론에	-13775
▁언론이	-13776
▁언제나	-13777
▁언젠가	-13778
▁엄마로	-13779
▁엄지온	-13780
▁없네요	-13781
▁없는듯	-13782
▁없다는	-13783
▁없다해	-13784
▁엉덩이	-13785
▁엑스원	-13786
▁여성과	-13787
▁여성들	-13788
▁여성이	-13789
▁연락엔	-13790
▁연루설	-13791
▁연주회	-13792
▁연하남	-13793
▁영상에	-13794
▁영장실	-13795
▁영재가	-13796
▁예의가	-13797
▁오늘꺼	-13798
▁오만석	-13799
▁오보로	-13800
▁올라오	-13801
▁올리는	-13802
▁완성형	-13803
▁완전체	-13804
▁왜이러	-13805
▁왜자꾸	-13806
▁요섹남	-13807
▁욕먹고	-13808
▁우려먹	-13809
▁욱일기	-13810
▁웃긴다	-13811
▁원피스	-13812
▁월버그	-13813
▁유재환	-13814
▁유전자	-13815
▁유현수	-13816
▁윤계상	-13817
▁윤성호	-13818
▁윤여정	-13819
▁윤지오	-13820
▁윤총경	-13821
▁응원도	-13822
▁의도가	-13823
▁이간질	-13824
▁이기찬	-13825
▁이끌고	-13826
▁이던이	-13827
▁이동우	-13828
▁이딴거	-13829
▁이러쿵	-13830
▁이명박	-13831
▁이미담	-13832
▁이상미	-13833
▁이상용	-13834
▁이새기	-13835
▁이연수	-13836
▁이해안	-13837
▁이해인	-13838
▁이혜영	-13839
▁인생에	-13840
▁인생을	-13841
▁인생이	-13842
▁일하는	-13843
▁임신도	-13844
▁입막음	-13845
▁입연다	-13846
▁있는건	-13847
▁있었던	-13848
▁있었음	-13849
▁있을거	-13850
▁자살한	-13851
▁자신을	-13852
▁자신의	-13853
▁작품이	-13854
▁잘하면	-13855
▁잠이나	-13856
▁장문복	-13857
▁장혜진	-13858
▁재미로	-13859
▁재선임	-13860
▁재충전	-13861
▁재평가	-13862
▁저런거	-13863
▁저런데	-13864
▁저지른	-13865
▁전공해	-13866
▁전부터	-13867
▁전태관	-13868
▁정부는	-13869
▁조국이	-13870
▁조선엔	-13871
▁조은정	-13872
▁좋네요	-13873
▁좋아할	-13874
▁좋아함	-13875
▁주변에	-13876
▁주제에	-13877
▁주총장	-13878
▁죽었다	-13879
▁죽은거	-13880
▁준비기	-13881
▁중심에	-13882
▁증거가	-13883
▁증거도	-13884
▁지나가	-13885
▁지나유	-13886
▁지연아	-13887
▁지웠다	-13888
▁지적한	-13889
▁지친다	-13890
▁지하철	-13891
▁직원들	-13892
▁진정한	-13893
▁진짜로	-13894
▁짱짱맨	-13895
▁쪽바리	-13896
▁찌라시	-13897
▁찌질한	-13898
▁찍을때	-13899
▁찢어온	-13900
▁차까지	-13901
▁차세찌	-13902
▁차이가	-13903
▁참고로	-13904
▁참으로	-13905
▁처음에	-13906
▁천명훈	-13907
▁첨부터	-13908
▁첫방송	-13909
▁청혼한	-13910
▁초유의	-13911
▁최무성	-13912
▁최정훈	-13913
▁추모한	-13914
▁캐슬에	-13915
▁케이윌	-13916
▁큰아버	-13917
▁클라스	-13918
▁키작고	-13919
▁털었다	-13920
▁토니안	-13921
▁특별한	-13922
▁파장은	-13923
▁팩트는	-13924
▁팬에게	-13925
▁페미는	-13926
▁폐지가	-13927
▁포에버	-13928
▁폭로할	-13929
▁표절설	-13930
▁피디가	-13931
▁피맥집	-13932
▁하겠냐	-13933
▁하겠네	-13934
▁하겠지	-13935
▁하고도	-13936
▁하구만	-13937
▁하나는	-13938
▁하는것	-13939
▁하는짓	-13940
▁하니까	-13941
▁하려고	-13942
▁하연수	-13943
▁하이틴	-13944
▁한국의	-13945
▁한무당	-13946
▁한물간	-13947
▁한사람	-13948
▁해보고	-13949
▁해줘요	-13950
▁핸드폰	-13951
▁했겠지	-13952
▁했다면	-13953
▁했을까	-13954
▁허투루	-13955
▁현무야	-13956
▁현실로	-13957
▁형으로	-13958
▁화났어	-13959
▁화사한	-13960
▁환상의	-13961
▁황광희	-13962
▁황보라	-13963
▁후계자	-13964
▁흑역사	-13965
결별까지	-13966
계속되는	-13967
계약연애	-13968
골프예능	-13969
골프회동	-13970
공허했다	-13971
구속영장	-13972
군살제로	-13973
권다미의	-13974
김건모는	-13975
남태현은	-13976
내부자들	-13977
너무나도	-13978
는건가요	-13979
늙어가는	-13980
다니면서	-13981
당당하다	-13982
더걸스만	-13983
더이스트	-13984
덮밥집에	-13985
뒷바라지	-13986
드레스도	-13987
미소짓고	-13988
미운우리	-13989
미코다운	-13990
박나래는	-13991
박서원과	-13992
박서준은	-13993
백상예술	-13994
베를린서	-13995
보디슈트	-13996
보이는데	-13997
보이던데	-13998
부도의날	-13999
블랙박스	-14000
비닐의상	-14001
비키니는	-14002
사업가와	-14003
살아있는	-14004
상처받은	-14005
상표출원	-14006
생겼는데	-14007
설거지에	-14008
소녀시대	-14009
소속사는	-14010
소속사와	-14011
솔직하게	-14012
스러웠던	-14013
스럽지만	-14014
스윙키즈	-14015
아먹어서	-14016
아야한다	-14017
아이유의	-14018
아침부터	-14019
예술가인	-14020
옥문아들	-14021
우울하고	-14022
원합니다	-14023
위올라이	-14024
을때부터	-14025
응암동의	-14026
응원물결	-14027
의사요한	-14028
이라더니	-14029
이라지만	-14030
이서진은	-14031
이슈와치	-14032
이승기는	-14033
이종석과	-14034
이채은의	-14035
인줄알고	-14036
전라노출	-14037
조리원서	-14038
조은정과	-14039
지는구나	-14040
지진희만	-14041
징그럽게	-14042
처음이자	-14043
하는건가	-14044
하더라도	-14045
하시시박	-14046
하십니다	-14047
학력위조	-14048
한다는거	-14049
해보세요	-14050
행복하길	-14051
황우슬혜	-14052
훈남신랑	-14053
히든싱어	-14054
,,,,,	-14055
...'1	-14056
]""11	-14057
]""21	-14058
https	-14059
ᅲᅲᅲᅲᅲ	-14060
▁""19	-14061
▁""43	-14062
▁"'53	-14063
▁'6.9	-14064
▁1200	-14065
▁9000	-14066
▁KPMA	-14067
▁godX	-14068
▁ᄃᄃᄃᄃ	-14069
▁가전제품	-14070
▁감정으로	-14071
▁강남미인	-14072
▁강현석은	-14073
▁개그우먼	-14074
▁거울셀카	-14075
▁거절사유	-14076
▁거짓말을	-14077
▁격정멜로	-14078
▁결혼사진	-14079
▁결혼하지	-14080
▁계집들은	-14081
▁고백부터	-14082
▁공식커플	-14083
▁공통분모	-14084
▁공항장애	-14085
▁공효진이	-14086
▁관심없다	-14087
▁구하려는	-14088
▁구혜선의	-14089
▁그나이에	-14090
▁그나저나	-14091
▁그대로네	-14092
▁그런거지	-14093
▁그럴수도	-14094
▁그와중에	-14095
▁기어나오	-14096
▁김아론도	-14097
▁김종명과	-14098
▁김지원과	-14099
▁김태희는	-14100
▁나누려다	-14101
▁나비효과	-14102
▁나오세요	-14103
▁나이차이	-14104
▁나타났다	-14105
▁남달랐던	-14106
▁남자배우	-14107
▁남편분과	-14108
▁노잼이라	-14109
▁누군지는	-14110
▁누리꾼이	-14111
▁능력있는	-14112
▁다른사람	-14113
▁다시보기	-14114
▁닮아가네	-14115
▁담요까지	-14116
▁당당하게	-14117
▁대만여행	-14118
▁대체불가	-14119
▁댓글들이	-14120
▁댓글에서	-14121
▁돌발멘트	-14122
▁돌아가셨	-14123
▁동료들만	-14124
▁동요하지	-14125
▁뒷이야기	-14126
▁드라마로	-14127
▁드라마만	-14128
▁드러냈던	-14129
▁듣보잡이	-14130
▁떠올리며	-14131
▁루푸스병	-14132
▁마약혐의	-14133
▁마음놓고	-14134
▁마찬가지	-14135
▁만수무강	-14136
▁맞선녀가	-14137
▁매니저와	-14138
▁먹으면서	-14139
▁멋집니다	-14140
▁멜로망스	-14141
▁모든분들	-14142
▁모르면서	-14143
▁목소리가	-14144
▁목소리도	-14145
▁못하는거	-14146
▁무서워서	-14147
▁무슨상관	-14148
▁무시하고	-14149
▁물어보살	-14150
▁미국으로	-14151
▁믿고보는	-14152
▁믿습니다	-14153
▁박보검은	-14154
▁반려견에	-14155
▁반전일상	-14156
▁발표한다	-14157
▁밝혀지면	-14158
▁배우까지	-14159
▁백종원이	-14160
▁벗어나면	-14161
▁변기유천	-14162
▁병원에서	-14163
▁보기싫음	-14164
▁보디라인	-14165
▁부럽네요	-14166
▁부럽다고	-14167
▁부상에도	-14168
▁분위기가	-14169
▁블랙박스	-14170
▁빌렸지만	-14171
▁사내이사	-14172
▁사람이랑	-14173
▁사로잡은	-14174
▁사전유출	-14175
▁삭제까지	-14176
▁살다보면	-14177
▁생각보다	-14178
▁생각해서	-14179
▁생화학과	-14180
▁서유리가	-14181
▁소속사에	-14182
▁속도위반	-14183
▁솔직하게	-14184
▁송윤형의	-14185
▁송종국이	-14186
▁송혜교가	-14187
▁송혜교는	-14188
▁송혜교와	-14189
▁쇄도하는	-14190
▁스타일이	-14191
▁식상하다	-14192
▁신비주의	-14193
▁실검장악	-14194
▁심각하게	-14195
▁싱글대디	-14196
▁쓰레기로	-14197
▁쓰지마라	-14198
▁아니라는	-14199
▁아니면서	-14200
▁아니었음	-14201
▁아닌가요	-14202
▁아들안고	-14203
▁아쉽네요	-14204
▁아이돌은	-14205
▁아이돌이	-14206
▁아이디는	-14207
▁아직까지	-14208
▁아카데미	-14209
▁안믿었던	-14210
▁안타까움	-14211
▁않았는데	-14212
▁알게되나	-14213
▁알겠는데	-14214
▁언급하며	-14215
▁얼굴천재	-14216
▁엄격했던	-14217
▁없나보네	-14218
▁여기서도	-14219
▁여자나이	-14220
▁연기연습	-14221
▁연예기사	-14222
▁영상삭제	-14223
▁예쁘다고	-14224
▁예전부터	-14225
▁오프닝에	-14226
▁올리지마	-14227
▁우도환을	-14228
▁우효광과	-14229
▁원조가수	-14230
▁원천봉쇄	-14231
▁위태롭다	-14232
▁육체가진	-14233
▁윤채경과	-14234
▁의식했나	-14235
▁의지없는	-14236
▁의지하는	-14237
▁이것들아	-14238
▁이나영에	-14239
▁이미지가	-14240
▁이쁘니까	-14241
▁이야기가	-14242
▁이열음이	-14243
▁이영자씨	-14244
▁이와중에	-14245
▁이정도는	-14246
▁이정도면	-14247
▁이해한다	-14248
▁이혼하면	-14249
▁인기많아	-14250
▁인사이드	-14251
▁인생이나	-14252
▁일반인들	-14253
▁일반인이	-14254
▁일으켰다	-14255
▁임신까지	-14256
▁입장에선	-14257
▁입학한다	-14258
▁자기관리	-14259
▁자타공인	-14260
▁잘못이지	-14261
▁잘못한건	-14262
▁잘사세요	-14263
▁잘하시고	-14264
▁장난치는	-14265
▁재미없고	-14266
▁재미없는	-14267
▁재미있게	-14268
▁재밌다고	-14269
▁재밌어요	-14270
▁재혼으로	-14271
▁저정도면	-14272
▁전국민이	-14273
▁전라디언	-14274
▁전현무랑	-14275
▁전화번호	-14276
▁정상녹화	-14277
▁정상적인	-14278
▁정유미와	-14279
▁정준영이	-14280
▁정호영도	-14281
▁제작진이	-14282
▁조용하네	-14283
▁조퇴하고	-14284
▁좋습니다	-14285
▁좋아하고	-14286
▁좋아하네	-14287
▁좋아하지	-14288
▁주례없는	-14289
▁줄여달라	-14290
▁중요하지	-14291
▁징글징글	-14292
▁찾았지만	-14293
▁천하장사	-14294
▁추가폭로	-14295
▁추모물결	-14296
▁치매장모	-14297
▁침대셀카	-14298
▁커버렸네	-14299
▁티비에서	-14300
▁포기못해	-14301
▁풀스토리	-14302
▁피해자가	-14303
▁하나보네	-14304
▁하는거지	-14305
▁하는건지	-14306
▁하늘보고	-14307
▁하루만에	-14308
▁하선호에	-14309
▁학창시절	-14310
▁한결같은	-14311
▁한남들이	-14312
▁한혜진은	-14313
▁한혜진이	-14314
▁해체심경	-14315
▁홍진영이	-14316
▁화끈하게	-14317
▁화풀어요	-14318
▁환골탈태	-14319
▁희롱당한	-14320
▁힘들겠다	-14321
강다니엘과	-14322
같이걸을까	-14323
그렇게까지	-14324
노메이크업	-14325
농염주의보	-14326
따로또같이	-14327
베이비복스	-14328
사장으로서	-14329
수미네반찬	-14330
슈퍼루키의	-14331
아이돌학교	-14332
오늘의탐정	-14333
원더걸스만	-14334
응원합니다	-14335
의식불명설	-14336
이순재부터	-14337
자랑스러워	-14338
작별인사를	-14339
제천경찰서	-14340
케이윌까지	-14341
...‘20	-14342
??????	-14343
▁"""20	-14344
▁[2020	-14345
▁갈등이었다	-14346
▁같았습니다	-14347
▁건강하시고	-14348
▁건장했는데	-14349
▁고스트마마	-14350
▁공감하실듯	-14351
▁그랜드슬램	-14352
▁나와주세요	-14353
▁댄스곡으로	-14354
▁데뷔했어요	-14355
▁데이트폭력	-14356
▁되살아났다	-14357
▁드러난다면	-14358
▁라이프온마	-14359
▁맞아야겠다	-14360
▁모르겠는데	-14361
▁미안하다고	-14362
▁바라봤는데	-14363
▁배려석에서	-14364
▁버팀목이자	-14365
▁보기싫으면	-14366
▁블랙리스트	-14367
▁비현실적인	-14368
▁사랑합니다	-14369
▁생각하는데	-14370
▁생각해봐라	-14371
▁숨어들었다	-14372
▁아니었으면	-14373
▁아이즈원은	-14374
▁안나왔으면	-14375
▁양세형까지	-14376
▁어른스럽게	-14377
▁응원할게요	-14378
▁이상윤부터	-14379
▁이아르크에	-14380
▁잘못했다고	-14381
▁잘어울려요	-14382
▁잡아주셨다	-14383
▁좋았을텐데	-14384
▁죄송합니다	-14385
▁주객전도된	-14386
▁중고거래에	-14387
▁쿵쾅이들아	-14388
▁큰아버지도	-14389
▁플레디스에	-14390
▁필라테스로	-14391
▁하지맙시다	-14392
▁하차하세요	-14393
▁한국여자들	-14394
♥""..'	-14395
게릴라데이트	-14396
국가부도의날	-14397
뒷바라지해준	-14398
미운우리새끼	-14399
백상예술대상	-14400
순풍산부인과	-14401
전국노래자랑	-14402
..'2018	-14403
▁"""180	-14404
▁16.1%"	-14405
▁닮아가나봐요	-14406
▁만들었습니다	-14407
▁받아들이겠다	-14408
▁번아웃증후군	-14409
▁영장실질심사	-14410
▁지긋지긋하다	-14411
▁튀김덮밥집에	-14412
▁항소심에서도	-14413
노메이크업으로	-14414
더이스트라이트	-14415
봄여름가을겨울	-14416
탐관오리에게는	-14417
▁ᅲᅲᅲᅲᅲᅲᅲ	-14418
ᄏᄏᄏᄏᄏᄏᄏᄏᄏᄏᄏᄏ	-14419
▁ᄏᄏᄏᄏᄏᄏᄏᄏᄏᄏᄏᄏᄏ	-14420
,?	-14421
.@	-14422
82	-14423
?)	-14424
ec	-14425
ed	-14426
na	-14427
ns	-14428
oa	-14429
ot	-14430
ti	-14431
ue	-14432
wa	-14433
ye	-14434
~?	-14435
↑'	-14436
▁+	-14437
▁@	-14438
▁x	-14439
▁ᄐ	-14440
▁多	-14441
▁겹	-14442
▁곡	-14443
▁깐	-14444
▁뇬	-14445
▁댄	-14446
▁던	-14447
▁덤	-14448
▁땅	-14449
▁땐	-14450
▁룸	-14451
▁를	-14452
▁밖	-14453
▁뺑	-14454
▁섬	-14455
▁죠	-14456
▁줌	-14457
▁줘	-14458
▁줬	-14459
▁칠	-14460
▁혀	-14461
▁훈	-14462
★]	-14463
가게	-14464
가냐	-14465
가능	-14466
가시	-14467
가와	-14468
가장	-14469
간게	-14470
감사	-14471
갑네	-14472
값을	-14473
갔을	-14474
강변	-14475
강인	-14476
강제	-14477
강지	-14478
같애	-14479
같어	-14480
갚는	-14481
개가	-14482
개는	-14483
객에	-14484
거기	-14485
거는	-14486
거에	-14487
거의	-14488
거죠	-14489
거진	-14490
걱정	-14491
걸리	-14492
것다	-14493
겠군	-14494
겠니	-14495
격은	-14496
경덕	-14497
경에	-14498
고만	-14499
고맙	-14500
곳에	-14501
과의	-14502
과천	-14503
괴물	-14504
구걸	-14505
구기	-14506
구로	-14507
구질	-14508
국아	-14509
국의	-14510
궁창	-14511
귀국	-14512
규만	-14513
규현	-14514
글고	-14515
긋냐	-14516
기나	-14517
기들	-14518
기라	-14519
기본	-14520
기엔	-14521
기준	-14522
긴거	-14523
긴함	-14524
길바	-14525
김지	-14526
김치	-14527
꺼임	-14528
꺼져	-14529
꼬박	-14530
꼴이	-14531
나대	-14532
나머	-14533
난치	-14534
날듯	-14535
남불	-14536
남성	-14537
남이	-14538
났지	-14539
낭비	-14540
내미	-14541
내주	-14542
냐는	-14543
너의	-14544
너희	-14545
넘는	-14546
넘어	-14547
넘이	-14548
넣고	-14549
념을	-14550
논다	-14551
놀이	-14552
놈도	-14553
는걸	-14554
는대	-14555
는중	-14556
늦게	-14557
니는	-14558
닌다	-14559
님의	-14560
다주	-14561
다줄	-14562
단아	-14563
달고	-14564
달아	-14565
달에	-14566
담주	-14567
답네	-14568
당에	-14569
대요	-14570
대중	-14571
대지	-14572
덕문	-14573
덕에	-14574
덜덜	-14575
데려	-14576
데부	-14577
도동	-14578
도를	-14579
도우	-14580
돈집	-14581
동갑	-14582
동네	-14583
동반	-14584
동이	-14585
동자	-14586
돼요	-14587
됐지	-14588
되네	-14589
된듯	-14590
될지	-14591
두지	-14592
두홍	-14593
둘다	-14594
뒤집	-14595
드려	-14596
득녀	-14597
든쇼	-14598
듣는	-14599
들었	-14600
들좀	-14601
듯ᄏ	-14602
디가	-14603
디션	-14604
딸이	-14605
땜시	-14606
또한	-14607
라가	-14608
라다	-14609
란도	-14610
랍다	-14611
랑마	-14612
러리	-14613
렇고	-14614
려도	-14615
려면	-14616
려묘	-14617
려주	-14618
렸네	-14619
령한	-14620
례가	-14621
로도	-14622
로드	-14623
로지	-14624
로트	-14625
롭지	-14626
륜스	-14627
르르	-14628
리개	-14629
리티	-14630
리포	-14631
릴거	-14632
링팀	-14633
마가	-14634
마는	-14635
마드	-14636
마른	-14637
만데	-14638
만들	-14639
만치	-14640
많음	-14641
말린	-14642
말야	-14643
말지	-14644
맛이	-14645
망신	-14646
망정	-14647
망해	-14648
맞네	-14649
매김	-14650
맨날	-14651
맨발	-14652
맨쇼	-14653
멍이	-14654
멍청	-14655
며칠	-14656
명을	-14657
모를	-14658
모함	-14659
목구	-14660
몰라	-14661
몽땅	-14662
묘ᆢ	-14663
무가	-14664
무엘	-14665
무용	-14666
문을	-14667
문화	-14668
물림	-14669
미수	-14670
미스	-14671
미씨	-14672
미안	-14673
바른	-14674
바쁜	-14675
바티	-14676
반성	-14677
발찌	-14678
밤새	-14679
밤에	-14680
방종	-14681
배추	-14682
백만	-14683
백억	-14684
버드	-14685
범은	-14686
법조	-14687
벗고	-14688
병을	-14689
보길	-14690
보나	-14691
보안	-14692
복귀	-14693
본인	-14694
볼거	-14695
볼땐	-14696
봉선	-14697
부담	-14698
부디	-14699
부랭	-14700
부럽	-14701
부르	-14702
부상	-14703
부와	-14704
부지	-14705
부탁	-14706
북한	-14707
분도	-14708
분량	-14709
불만	-14710
불어	-14711
비난	-14712
비도	-14713
비리	-14714
비슷	-14715
빨고	-14716
빨로	-14717
빼면	-14718
뻐요	-14719
뻔해	-14720
뿐이	-14721
사네	-14722
사카	-14723
사히	-14724
살게	-14725
살지	-14726
상씨	-14727
상에	-14728
색이	-14729
생겨	-14730
서방	-14731
서버	-14732
서서	-14733
석아	-14734
선동	-14735
성기	-14736
성빈	-14737
성사	-14738
세영	-14739
세우	-14740
세월	-14741
센징	-14742
셨나	-14743
셨네	-14744
소개	-14745
속에	-14746
속은	-14747
솔이	-14748
쇼를	-14749
수사	-14750
수잇	-14751
순옥	-14752
스브	-14753
슬기	-14754
슬프	-14755
승수	-14756
승형	-14757
시기	-14758
시댁	-14759
시러	-14760
시리	-14761
시에	-14762
시영	-14763
시코	-14764
시피	-14765
식기	-14766
식도	-14767
신데	-14768
신듯	-14769
신료	-14770
신아	-14771
실이	-14772
실종	-14773
심쿵	-14774
쓰기	-14775
쓰지	-14776
쓸데	-14777
씨랑	-14778
씨를	-14779
아진	-14780
않고	-14781
앗어	-14782
았냐	-14783
애니	-14784
애비	-14785
애요	-14786
야돼	-14787
양녀	-14788
양반	-14789
얘는	-14790
어났	-14791
어용	-14792
어제	-14793
어휴	-14794
억이	-14795
언증	-14796
업다	-14797
업소	-14798
업자	-14799
없니	-14800
었냐	-14801
었는	-14802
에나	-14803
에비	-14804
여주	-14805
역질	-14806
연령	-14807
였던	-14808
영미	-14809
영선	-14810
영아	-14811
영이	-14812
오면	-14813
오지	-14814
왔나	-14815
왕대	-14816
왕표	-14817
왜구	-14818
요테	-14819
우려	-14820
우로	-14821
우빈	-14822
우심	-14823
운내	-14824
운이	-14825
원스	-14826
웠음	-14827
유도	-14828
유라	-14829
유업	-14830
유유	-14831
으네	-14832
으렴	-14833
으시	-14834
은석	-14835
을걸	-14836
을뿐	-14837
의맛	-14838
이거	-14839
이건	-14840
이구	-14841
이그	-14842
이긴	-14843
이러	-14844
이론	-14845
이별	-14846
이없	-14847
이엿	-14848
이형	-14849
인격	-14850
인대	-14851
인형	-14852
일베	-14853
일보	-14854
일수	-14855
잇고	-14856
있니	-14857
있죠	-14858
잊어	-14859
자면	-14860
잔다	-14861
잔한	-14862
잖은	-14863
잡고	-14864
잡아	-14865
적폐	-14866
전부	-14867
절대	-14868
절묘	-14869
절에	-14870
절치	-14871
점화	-14872
정창	-14873
제가	-14874
제시	-14875
져도	-14876
졌냐	-14877
졌던	-14878
졌어	-14879
조기	-14880
조아	-14881
존나	-14882
종양	-14883
좋네	-14884
주니	-14885
주대	-14886
주라	-14887
주작	-14888
죽고	-14889
죽을	-14890
준다	-14891
중간	-14892
줬음	-14893
즈는	-14894
증세	-14895
지라	-14896
지상	-14897
지요	-14898
진에	-14899
진한	-14900
질에	-14901
집안	-14902
집은	-14903
짓이	-14904
징계	-14905
짜고	-14906
짜는	-14907
쩌고	-14908
찍고	-14909
찍히	-14910
차고	-14911
찬이	-14912
창욱	-14913
천지	-14914
청춘	-14915
체를	-14916
체탈	-14917
초청	-14918
추어	-14919
축구	-14920
치를	-14921
치북	-14922
치에	-14923
친다	-14924
친한	-14925
컷이	-14926
크림	-14927
키가	-14928
킬로	-14929
타령	-14930
타살	-14931
태기	-14932
택을	-14933
텐츠	-14934
톱의	-14935
통수	-14936
투명	-14937
투브	-14938
팬은	-14939
편도	-14940
편은	-14941
폭망	-14942
품이	-14943
풍기	-14944
피고	-14945
필한	-14946
하에	-14947
하튼	-14948
학폭	-14949
한대	-14950
한일	-14951
할꺼	-14952
할께	-14953
할뿐	-14954
할줄	-14955
함을	-14956
합니	-14957
합은	-14958
해질	-14959
해체	-14960
햇던	-14961
향후	-14962
혜련	-14963
혜리	-14964
호소	-14965
홍보	-14966
홍어	-14967
화기	-14968
(26	-14969
?!?	-14970
KBS	-14971
^^;	-14972
out	-14973
▁	-14974
"	-14975
.	-14976
이	-14977
'	-14978
다	-14979
,	-14980
지	-14981
는	-14982
고	-14983
아	-14984
하	-14985
[	-14986
]	-14987
가	-14988
나	-14989
사	-14990
도	-14991
인	-14992
종	-14993
한	-14994
ᄏ	-14995
기	-14996
에	-14997
합	-14998
자	-14999
은	-15000
라	-15001
어	-15002
리	-15003
들	-15004
서	-15005
?	-15006
로	-15007
정	-15008
니	-15009
의	-15010
해	-15011
진	-15012
만	-15013
연	-15014
시	-15015
보	-15016
요	-15017
데	-15018
스	-15019
그	-15020
대	-15021
게	-15022
마	-15023
상	-15024
수	-15025
전	-15026
성	-15027
부	-15028
안	-15029
미	-15030
면	-15031
거	-15032
김	-15033
!	-15034
장	-15035
여	-15036
일	-15037
유	-15038
네	-15039
주	-15040
무	-15041
)	-15042
(	-15043
현	-15044
신	-15045
→	-15046
남	-15047
오	-15048
예	-15049
소	-15050
우	-15051
영	-15052
재	-15053
혼	-15054
1	-15055
을	-15056
~	-15057
원	-15058
생	-15059
구	-15060
으	-15061
동	-15062
제	-15063
세	-15064
공	-15065
모	-15066
♥	-15067
2	-15068
애	-15069
까	-15070
박	-15071
단	-15072
조	-15073
없	-15074
내	-15075
결	-15076
야	-15077
민	-15078
비	-15079
개	-15080
과	-15081
문	-15082
음	-15083
화	-15084
있	-15085
·	-15086
’	-15087
S	-15088
‘	-15089
국	-15090
선	-15091
방	-15092
잘	-15093
송	-15094
식	-15095
말	-15096
행	-15097
중	-15098
0	-15099
랑	-15100
저	-15101
터	-15102
와	-15103
살	-15104
경	-15105
년	-15106
같	-15107
독	-15108
슈	-15109
드	-15110
O	-15111
트	-15112
건	-15113
냐	-15114
심	-15115
“	-15116
”	-15117
실	-15118
했	-15119
차	-15120
임	-15121
준	-15122
혜	-15123
좋	-15124
러	-15125
래	-15126
감	-15127
호	-15128
것	-15129
입	-15130
적	-15131
너	-15132
복	-15133
강	-15134
명	-15135
려	-15136
더	-15137
불	-15138
배	-15139
할	-15140
최	-15141
백	-15142
치	-15143
간	-15144
람	-15145
당	-15146
열	-15147
못	-15148
산	-15149
출	-15150
희	-15151
히	-15152
속	-15153
물	-15154
발	-15155
3	-15156
겠	-15157
ᅲ	-15158
운	-15159
노	-15160
란	-15161
태	-15162
작	-15163
었	-15164
T	-15165
위	-15166
석	-15167
계	-15168
되	-15169
프	-15170
난	-15171
윤	-15172
반	-15173
폭	-15174
던	-15175
설	-15176
분	-15177
V	-15178
왜	-15179
집	-15180
매	-15181
편	-15182
때	-15183
를	-15184
관	-15185
짜	-15186
타	-15187
근	-15188
플	-15189
얼	-15190
4	-15191
피	-15192
런	-15193
바	-15194
언	-15195
별	-15196
친	-15197
누	-15198
알	-15199
악	-15200
형	-15201
논	-15202
길	-15203
격	-15204
청	-15205
승	-15206
달	-15207
씨	-15208
많	-15209
후	-15210
투	-15211
버	-15212
녀	-15213
레	-15214
뷰	-15215
양	-15216
디	-15217
금	-15218
h	-15219
좀	-15220
처	-15221
먹	-15222
추	-15223
았	-15224
크	-15225
용	-15226
딸	-15227
님	-15228
응	-15229
참	-15230
함	-15231
본	-15232
약	-15233
눈	-15234
체	-15235
교	-15236
황	-15237
돌	-15238
력	-15239
직	-15240
글	-15241
새	-15242
훈	-15243
키	-15244
C	-15245
듯	-15246
쎈	-15247
역	-15248
월	-15249
8	-15250
걸	-15251
ᄒ	-15252
르	-15253
5	-15254
각	-15255
뭐	-15256
파	-15257
★	-15258
두	-15259
손	-15260
포	-15261
홍	-15262
g	-15263
엄	-15264
울	-15265
P	-15266
등	-15267
빠	-15268
워	-15269
첫	-15270
않	-15271
렇	-15272
활	-15273
병	-15274
측	-15275
봐	-15276
회	-15277
린	-15278
s	-15279
천	-15280
긴	-15281
^	-15282
망	-15283
늘	-15284
머	-15285
올	-15286
귀	-15287
든	-15288
표	-15289
목	-15290
질	-15291
번	-15292
X	-15293
굴	-15294
능	-15295
죄	-15296
카	-15297
환	-15298
돈	-15299
습	-15300
또	-15301
욕	-15302
된	-15303
증	-15304
+	-15305
억	-15306
변	-15307
싶	-15308
효	-15309
초	-15310
통	-15311
군	-15312
법	-15313
커	-15314
6	-15315
밤	-15316
슬	-15317
A	-15318
냥	-15319
N	-15320
째	-15321
토	-15322
느	-15323
채	-15324
줄	-15325
솔	-15326
티	-15327
ᄍ	-15328
럽	-15329
맞	-15330
창	-15331
급	-15332
넘	-15333
받	-15334
테	-15335
께	-15336
루	-15337
닌	-15338
탈	-15339
날	-15340
충	-15341
ᅮ	-15342
외	-15343
절	-15344
벌	-15345
죽	-15346
학	-15347
막	-15348
른	-15349
i	-15350
둘	-15351
맛	-15352
필	-15353
쁘	-15354
판	-15355
;	-15356
M	-15357
D	-15358
확	-15359
힘	-15360
빈	-15361
극	-15362
갈	-15363
였	-15364
업	-15365
탄	-15366
팬	-15367
끝	-15368
#	-15369
9	-15370
ᅳ	-15371
7	-15372
브	-15373
검	-15374
왕	-15375
Y	-15376
코	-15377
완	-15378
료	-15379
축	-15380
점	-15381
온	-15382
쁜	-15383
술	-15384
골	-15385
혹	-15386
잡	-15387
져	-15388
쓰	-15389
겨	-15390
끼	-15391
족	-15392
엔	-15393
럼	-15394
림	-15395
락	-15396
름	-15397
몰	-15398
범	-15399
담	-15400
웃	-15401
순	-15402
따	-15403
맨	-15404
즈	-15405
허	-15406
n	-15407
k	-15408
케	-15409
퇴	-15410
며	-15411
쳐	-15412
캐	-15413
광	-15414
v	-15415
싫	-15416
-	-15417
품	-15418
故	-15419
B	-15420
댓	-15421
접	-15422
됐	-15423
슨	-15424
갑	-15425
블	-15426
션	-15427
혐	-15428
답	-15429
t	-15430
돼	-15431
론	-15432
몸	-15433
ᄃ	-15434
권	-15435
났	-15436
메	-15437
패	-15438
숙	-15439
향	-15440
얘	-15441
잼	-15442
:	-15443
싸	-15444
량	-15445
e	-15446
뭔	-15447
찰	-15448
류	-15449
꽃	-15450
봤	-15451
엑	-15452
평	-15453
풍	-15454
록	-15455
앞	-15456
찍	-15457
취	-15458
닝	-15459
K	-15460
놀	-15461
될	-15462
존	-15463
규	-15464
쇼	-15465
뿐	-15466
밝	-15467
특	-15468
혁	-15469
베	-15470
팅	-15471
짓	-15472
착	-15473
폐	-15474
립	-15475
퍼	-15476
왔	-15477
삼	-15478
딩	-15479
책	-15480
쌍	-15481
육	-15482
닮	-15483
써	-15484
페	-15485
H	-15486
궁	-15487
%	-15488
떠	-15489
멋	-15490
놈	-15491
뉴	-15492
죠	-15493
꾸	-15494
놓	-15495
즘	-15496
득	-15497
암	-15498
G	-15499
견	-15500
먼	-15501
잔	-15502
찬	-15503
핑	-15504
♡	-15505
믿	-15506
율	-15507
릴	-15508
찌	-15509
항	-15510
밌	-15511
움	-15512
`	-15513
침	-15514
클	-15515
=	-15516
꼭	-15517
닷	-15518
f	-15519
졌	-15520
텐	-15521
I	-15522
볼	-15523
빨	-15524
빼	-15525
샤	-15526
쉬	-15527
o	-15528
뷔	-15529
큰	-15530
톡	-15531
듀	-15532
렸	-15533
잠	-15534
널	-15535
둥	-15536
징	-15537
짝	-15538
흥	-15539
깝	-15540
몽	-15541
엘	-15542
잖	-15543
줌	-15544
풀	-15545
️	-15546
멤	-15547
콘	-15548
덕	-15549
갔	-15550
꺼	-15551
꼴	-15552
빛	-15553
철	-15554
옥	-15555
찾	-15556
헌	-15557
w	-15558
똑	-15559
뻐	-15560
x	-15561
밥	-15562
섭	-15563
J	-15564
겼	-15565
뒤	-15566
셔	-15567
빚	-15568
줘	-15569
휴	-15570
밀	-15571
택	-15572
ᄌ	-15573
떨	-15574
맘	-15575
혀	-15576
컴	-15577
無	-15578
봄	-15579
팔	-15580
델	-15581
듣	-15582
앙	-15583
염	-15584
美	-15585
쟁	-15586
힌	-15587
낸	-15588
빅	-15589
숨	-15590
뜨	-15591
핫	-15592
삭	-15593
욱	-15594
촬	-15595
낌	-15596
빙	-15597
섹	-15598
웅	-15599
웨	-15600
척	-15601
딱	-15602
색	-15603
셨	-15604
틀	-15605
픈	-15606
헤	-15607
ᄋ	-15608
깨	-15609
떻	-15610
@	-15611
륜	-15612
옷	-15613
괜	-15614
꼬	-15615
램	-15616
쪽	-15617
깜	-15618
념	-15619
랜	-15620
뭘	-15621
젠	-15622
텔	-15623
짱	-15624
협	-15625
괴	-15626
낳	-15627
련	-15628
슴	-15629
탁	-15630
곡	-15631
킹	-15632
m	-15633
韓	-15634
령	-15635
꾼	-15636
링	-15637
옹	-15638
즌	-15639
켜	-15640
녹	-15641
몇	-15642
익	-15643
짐	-15644
쩌	-15645
총	-15646
c	-15647
됨	-15648
벽	-15649
E	-15650
ᄉ	-15651
큼	-15652
겁	-15653
깐	-15654
엽	-15655
묵	-15656
L	-15657
ᆢ	-15658
늙	-15659
팀	-15660
럴	-15661
쉽	-15662
쏟	-15663
ᄂ	-15664
벗	-15665
웠	-15666
탑	-15667
톱	-15668
걱	-15669
곤	-15670
릭	-15671
잊	-15672
컬	-15673
갖	-15674
밖	-15675
싱	-15676
씬	-15677
좌	-15678
굳	-15679
뮤	-15680
쳤	-15681
쿵	-15682
랐	-15683
십	-15684
엇	-15685
힐	-15686
↑	-15687
끄	-15688
랙	-15689
률	-15690
빵	-15691
잇	-15692
휘	-15693
닥	-15694
랄	-15695
셋	-15696
졸	-15697
>	-15698
겹	-15699
북	-15700
빌	-15701
썬	-15702
엉	-15703
컷	-15704
껴	-15705
꿀	-15706
뜻	-15707
룡	-15708
룹	-15709
뱅	-15710
팝	-15711
폰	-15712
父	-15713
곧	-15714
센	-15715
쓸	-15716
롱	-15717
칙	-15718
튼	-15719
훨	-15720
렬	-15721
탕	-15722
걍	-15723
룩	-15724
붙	-15725
뻔	-15726
찮	-15727
촌	-15728
F	-15729
中	-15730
日	-15731
롤	-15732
쌈	-15733
콩	-15734
ᄅ	-15735
봉	-15736
탐	-15737
탓	-15738
b	-15739
깊	-15740
냄	-15741
똥	-15742
즐	-15743
킨	-15744
흡	-15745
y	-15746
낫	-15747
잃	-15748
곳	-15749
떤	-15750
젊	-15751
ᆞ	-15752
갚	-15753
액	-15754
쾅	-15755
쿨	-15756
홀	-15757
끌	-15758
넌	-15759
례	-15760
/	-15761
녕	-15762
닐	-15763
딴	-15764
떡	-15765
샷	-15766
솜	-15767
햇	-15768
新	-15769
랬	-15770
칼	-15771
픽	-15772
깔	-15773
삶	-15774
얻	-15775
찔	-15776
챙	-15777
획	-15778
뒷	-15779
뚱	-15780
뜬	-15781
랭	-15782
맥	-15783
쁨	-15784
젤	-15785
W	-15786
l	-15787
멘	-15788
뭉	-15789
빕	-15790
젝	-15791
쯧	-15792
母	-15793
둔	-15794
랍	-15795
묻	-15796
줍	-15797
쩔	-15798
츠	-15799
쾌	-15800
털	-15801
팩	-15802
냉	-15803
묘	-15804
뱀	-15805
찢	-15806
춘	-15807
쿠	-15808
꿈	-15809
꿔	-15810
댁	-15811
롬	-15812
몬	-15813
벼	-15814
쓴	-15815
캠	-15816
킴	-15817
R	-15818
a	-15819
r	-15820
겟	-15821
끊	-15822
낭	-15823
덮	-15824
줬	-15825
켰	-15826
킬	-15827
갓	-15828
롭	-15829
멜	-15830
뿌	-15831
왠	-15832
찐	-15833
춰	-15834
칭	-15835
픔	-15836
헨	-15837
ᄀ	-15838
넣	-15839
넷	-15840
덩	-15841
땐	-15842
옛	-15843
웬	-15844
읽	-15845
콤	-15846
d	-15847
농	-15848
벤	-15849
붕	-15850
턴	-15851
헐	-15852
혈	-15853
훼	-15854
ᄇ	-15855
・	-15856
씩	-15857
엠	-15858
옆	-15859
짠	-15860
쯤	-15861
펑	-15862
흠	-15863
p	-15864
❤	-15865
높	-15866
뇌	-15867
늦	-15868
뚝	-15869
뛰	-15870
룸	-15871
멸	-15872
앨	-15873
앵	-15874
엣	-15875
첨	-15876
값	-15877
균	-15878
븐	-15879
썸	-15880
칠	-15881
u	-15882
多	-15883
行	-15884
낙	-15885
뜯	-15886
맙	-15887
슷	-15888
압	-15889
킷	-15890
튀	-15891
험	-15892
女	-15893
겸	-15894
끔	-15895
냈	-15896
댄	-15897
덜	-15898
딘	-15899
떼	-15900
멀	-15901
샘	-15902
춤	-15903
컨	-15904
콜	-15905
틴	-15906
흘	-15907
前	-15908
軍	-15909
놔	-15910
띄	-15911
릿	-15912
멍	-15913
빡	-15914
뽕	-15915
섯	-15916
앉	-15917
앗	-15918
쟤	-15919
짧	-15920
j	-15921
家	-15922
객	-15923
곽	-15924
굿	-15925
끈	-15926
렵	-15927
뻤	-15928
뽀	-15929
섬	-15930
쇄	-15931
싼	-15932
윌	-15933
쫌	-15934
팟	-15935
곱	-15936
듬	-15937
땜	-15938
밉	-15939
셀	-15940
젖	-15941
핵	-15942
껏	-15943
롯	-15944
봅	-15945
뺏	-15946
옴	-15947
컸	-15948
핸	-15949
︎	-15950
子	-15951
긋	-15952
꺾	-15953
돋	-15954
쁠	-15955
셈	-15956
셜	-15957
웹	-15958
쥬	-15959
퀸	-15960
핀	-15961
흑	-15962
흙	-15963
낼	-15964
놨	-15965
딜	-15966
떴	-15967
붐	-15968
뽐	-15969
뿔	-15970
씀	-15971
윙	-15972
쩐	-15973
쭉	-15974
툰	-15975
폿	-15976
푸	-15977
ᄐ	-15978
걷	-15979
꼽	-15980
뇬	-15981
닙	-15982
덤	-15983
땅	-15984
렴	-15985
벅	-15986
벳	-15987
볶	-15988
뺑	-15989
숭	-15990
썼	-15991
엿	-15992
챌	-15993
